{
  "version": "1.0",
  "truncation": null,
  "padding": null,
  "added_tokens": [
    {
      "id": 0,
      "content": "<|pad|>",
      "single_word": false,
      "lstrip": false,
      "rstrip": false,
      "normalized": false,
      "special": true
    },
    {
      "id": 1,
      "content": "<|unk|>",
      "single_word": false,
      "lstrip": false,
      "rstrip": false,
      "normalized": false,
      "special": true
    },
    {
      "id": 2,
      "content": "<|bos|>",
      "single_word": false,
      "lstrip": false,
      "rstrip": false,
      "normalized": false,
      "special": true
    },
    {
      "id": 3,
      "content": "<|eos|>",
      "single_word": false,
      "lstrip": false,
      "rstrip": false,
      "normalized": false,
      "special": true
    },
    {
      "id": 4,
      "content": "<|system|>",
      "single_word": false,
      "lstrip": false,
      "rstrip": false,
      "normalized": false,
      "special": true
    },
    {
      "id": 5,
      "content": "<|user|>",
      "single_word": false,
      "lstrip": false,
      "rstrip": false,
      "normalized": false,
      "special": true
    },
    {
      "id": 6,
      "content": "<|assistant|>",
      "single_word": false,
      "lstrip": false,
      "rstrip": false,
      "normalized": false,
      "special": true
    }
  ],
  "normalizer": null,
  "pre_tokenizer": {
    "type": "ByteLevel",
    "add_prefix_space": false,
    "trim_offsets": true,
    "use_regex": true
  },
  "post_processor": null,
  "decoder": {
    "type": "ByteLevel",
    "add_prefix_space": true,
    "trim_offsets": true,
    "use_regex": true
  },
  "model": {
    "type": "BPE",
    "dropout": null,
    "unk_token": "<|unk|>",
    "continuing_subword_prefix": null,
    "end_of_word_suffix": null,
    "fuse_unk": false,
    "byte_fallback": false,
    "ignore_merges": false,
    "vocab": {
      "<|pad|>": 0,
      "<|unk|>": 1,
      "<|bos|>": 2,
      "<|eos|>": 3,
      "<|system|>": 4,
      "<|user|>": 5,
      "<|assistant|>": 6,
      "!": 7,
      "\"": 8,
      "#": 9,
      "$": 10,
      "%": 11,
      "&": 12,
      "'": 13,
      "(": 14,
      ")": 15,
      "*": 16,
      "+": 17,
      ",": 18,
      "-": 19,
      ".": 20,
      "/": 21,
      "0": 22,
      "1": 23,
      "2": 24,
      "3": 25,
      "4": 26,
      "5": 27,
      "6": 28,
      "7": 29,
      "8": 30,
      "9": 31,
      ":": 32,
      ";": 33,
      "<": 34,
      "=": 35,
      ">": 36,
      "?": 37,
      "@": 38,
      "A": 39,
      "B": 40,
      "C": 41,
      "D": 42,
      "E": 43,
      "F": 44,
      "G": 45,
      "H": 46,
      "I": 47,
      "J": 48,
      "K": 49,
      "L": 50,
      "M": 51,
      "N": 52,
      "O": 53,
      "P": 54,
      "Q": 55,
      "R": 56,
      "S": 57,
      "T": 58,
      "U": 59,
      "V": 60,
      "W": 61,
      "X": 62,
      "Y": 63,
      "Z": 64,
      "[": 65,
      "\\": 66,
      "]": 67,
      "^": 68,
      "_": 69,
      "`": 70,
      "a": 71,
      "b": 72,
      "c": 73,
      "d": 74,
      "e": 75,
      "f": 76,
      "g": 77,
      "h": 78,
      "i": 79,
      "j": 80,
      "k": 81,
      "l": 82,
      "m": 83,
      "n": 84,
      "o": 85,
      "p": 86,
      "q": 87,
      "r": 88,
      "s": 89,
      "t": 90,
      "u": 91,
      "v": 92,
      "w": 93,
      "x": 94,
      "y": 95,
      "z": 96,
      "{": 97,
      "|": 98,
      "}": 99,
      "~": 100,
      "¡": 101,
      "¢": 102,
      "£": 103,
      "¤": 104,
      "¥": 105,
      "¦": 106,
      "§": 107,
      "¨": 108,
      "©": 109,
      "ª": 110,
      "«": 111,
      "¬": 112,
      "®": 113,
      "¯": 114,
      "°": 115,
      "±": 116,
      "²": 117,
      "³": 118,
      "´": 119,
      "µ": 120,
      "¶": 121,
      "·": 122,
      "¸": 123,
      "¹": 124,
      "º": 125,
      "»": 126,
      "¼": 127,
      "½": 128,
      "¾": 129,
      "¿": 130,
      "À": 131,
      "Á": 132,
      "Â": 133,
      "Ã": 134,
      "Ä": 135,
      "Å": 136,
      "Æ": 137,
      "Ç": 138,
      "È": 139,
      "É": 140,
      "Ê": 141,
      "Ë": 142,
      "Ì": 143,
      "Í": 144,
      "Î": 145,
      "Ï": 146,
      "Ð": 147,
      "Ñ": 148,
      "Ò": 149,
      "Ó": 150,
      "Ô": 151,
      "Õ": 152,
      "Ö": 153,
      "×": 154,
      "Ø": 155,
      "Ù": 156,
      "Ú": 157,
      "Û": 158,
      "Ü": 159,
      "Ý": 160,
      "Þ": 161,
      "ß": 162,
      "à": 163,
      "á": 164,
      "â": 165,
      "ã": 166,
      "ä": 167,
      "å": 168,
      "æ": 169,
      "ç": 170,
      "è": 171,
      "é": 172,
      "ê": 173,
      "ë": 174,
      "ì": 175,
      "í": 176,
      "î": 177,
      "ï": 178,
      "ð": 179,
      "ñ": 180,
      "ò": 181,
      "ó": 182,
      "ô": 183,
      "õ": 184,
      "ö": 185,
      "÷": 186,
      "ø": 187,
      "ù": 188,
      "ú": 189,
      "û": 190,
      "ü": 191,
      "ý": 192,
      "þ": 193,
      "ÿ": 194,
      "Ā": 195,
      "ā": 196,
      "Ă": 197,
      "ă": 198,
      "Ą": 199,
      "ą": 200,
      "Ć": 201,
      "ć": 202,
      "Ĉ": 203,
      "ĉ": 204,
      "Ċ": 205,
      "ċ": 206,
      "Č": 207,
      "č": 208,
      "Ď": 209,
      "ď": 210,
      "Đ": 211,
      "đ": 212,
      "Ē": 213,
      "ē": 214,
      "Ĕ": 215,
      "ĕ": 216,
      "Ė": 217,
      "ė": 218,
      "Ę": 219,
      "ę": 220,
      "Ě": 221,
      "ě": 222,
      "Ĝ": 223,
      "ĝ": 224,
      "Ğ": 225,
      "ğ": 226,
      "Ġ": 227,
      "ġ": 228,
      "Ģ": 229,
      "ģ": 230,
      "Ĥ": 231,
      "ĥ": 232,
      "Ħ": 233,
      "ħ": 234,
      "Ĩ": 235,
      "ĩ": 236,
      "Ī": 237,
      "ī": 238,
      "Ĭ": 239,
      "ĭ": 240,
      "Į": 241,
      "į": 242,
      "İ": 243,
      "ı": 244,
      "Ĳ": 245,
      "ĳ": 246,
      "Ĵ": 247,
      "ĵ": 248,
      "Ķ": 249,
      "ķ": 250,
      "ĸ": 251,
      "Ĺ": 252,
      "ĺ": 253,
      "Ļ": 254,
      "ļ": 255,
      "Ľ": 256,
      "ľ": 257,
      "Ŀ": 258,
      "ŀ": 259,
      "Ł": 260,
      "ł": 261,
      "Ń": 262,
      "Ġt": 263,
      "Ġa": 264,
      "he": 265,
      "in": 266,
      "re": 267,
      "Ġthe": 268,
      "Ġo": 269,
      "er": 270,
      "on": 271,
      "at": 272,
      "Ġs": 273,
      "en": 274,
      "Ġc": 275,
      "es": 276,
      "Ġw": 277,
      "is": 278,
      "nd": 279,
      "or": 280,
      "it": 281,
      "Ġp": 282,
      "ed": 283,
      "al": 284,
      "Ġof": 285,
      "Ġb": 286,
      "Ġf": 287,
      "an": 288,
      "Ġin": 289,
      "ing": 290,
      "ar": 291,
      "Ġm": 292,
      "ou": 293,
      "ic": 294,
      "Ġand": 295,
      "Ġto": 296,
      "ion": 297,
      "Ġd": 298,
      "ro": 299,
      "le": 300,
      "as": 301,
      "Ġh": 302,
      "ent": 303,
      "Ġth": 304,
      "ct": 305,
      "il": 306,
      "Ġe": 307,
      "Ġre": 308,
      "om": 309,
      "ve": 310,
      "Ġl": 311,
      "st": 312,
      "Ġn": 313,
      "ly": 314,
      "Ġbe": 315,
      "Ġis": 316,
      "ol": 317,
      "se": 318,
      "ĠT": 319,
      "ation": 320,
      "Ġg": 321,
      "id": 322,
      "im": 323,
      "ce": 324,
      "ut": 325,
      "et": 326,
      "ĠA": 327,
      "ur": 328,
      "ch": 329,
      "ot": 330,
      "ra": 331,
      "ow": 332,
      "Ġfor": 333,
      "ĠS": 334,
      "ig": 335,
      "Ġon": 336,
      "Ġu": 337,
      "Ġthat": 338,
      "âĢ": 339,
      "ĠC": 340,
      "ver": 341,
      "Ġst": 342,
      "ir": 343,
      "ĠI": 344,
      "am": 345,
      "ul": 346,
      "ay": 347,
      "el": 348,
      "ad": 349,
      "Ġas": 350,
      "ith": 351,
      "her": 352,
      "Ġpro": 353,
      "Ġy": 354,
      "Ġcon": 355,
      "Ġan": 356,
      "Ġare": 357,
      "Ġwith": 358,
      "ĠM": 359,
      "Ġor": 360,
      "Ġwh": 361,
      "ter": 362,
      "if": 363,
      "Ġ1": 364,
      "Ġ(": 365,
      "Ġit": 366,
      "Ġal": 367,
      "ment": 368,
      "ĠThe": 369,
      "th": 370,
      "od": 371,
      "ĠP": 372,
      "op": 373,
      "ist": 374,
      "ge": 375,
      "ers": 376,
      "ate": 377,
      "Ġde": 378,
      "ies": 379,
      "ĠB": 380,
      "ill": 381,
      "ab": 382,
      "um": 383,
      "us": 384,
      "Ġex": 385,
      "ore": 386,
      "Ġhe": 387,
      "ere": 388,
      "Ġyou": 389,
      "ect": 390,
      "Ġcom": 391,
      "rom": 392,
      "ity": 393,
      "est": 394,
      "Ġby": 395,
      "os": 396,
      "ess": 397,
      "ĠH": 398,
      "Ġsu": 399,
      "Ġha": 400,
      "ld": 401,
      "ive": 402,
      "res": 403,
      "Ġat": 404,
      "em": 405,
      "ac": 406,
      "nt": 407,
      "Ġv": 408,
      "Ġwas": 409,
      "ri": 410,
      "ĠW": 411,
      "qu": 412,
      "pp": 413,
      "ke": 414,
      "ain": 415,
      "ĠD": 416,
      "Ġfrom": 417,
      "ant": 418,
      "igh": 419,
      "ud": 420,
      "ĠE": 421,
      "and": 422,
      "oc": 423,
      "ĠF": 424,
      "Ġne": 425,
      "ĠR": 426,
      "Ġse": 427,
      "Ġch": 428,
      "iv": 429,
      "ort": 430,
      "Ġr": 431,
      "ĠN": 432,
      "un": 433,
      "Ġ2": 434,
      "ical": 435,
      "Ġcan": 436,
      "ure": 437,
      "art": 438,
      "Ġnot": 439,
      "ial": 440,
      "ĠG": 441,
      "Ġhave": 442,
      "og": 443,
      "00": 444,
      "Ġle": 445,
      "Ġsp": 446,
      "ĠL": 447,
      "Ġen": 448,
      "Ġsh": 449,
      "The": 450,
      "âĢĻ": 451,
      "ight": 452,
      "all": 453,
      "rou": 454,
      "'s": 455,
      "ich": 456,
      "Ġthis": 457,
      "Ġab": 458,
      "gh": 459,
      "ould": 460,
      "ap": 461,
      "ther": 462,
      "ost": 463,
      "our": 464,
      "ear": 465,
      "ated": 466,
      "ions": 467,
      "Ġwor": 468,
      "ome": 469,
      "du": 470,
      "ine": 471,
      "ell": 472,
      "ard": 473,
      "out": 474,
      "ia": 475,
      "Ġus": 476,
      "Ġwe": 477,
      "ast": 478,
      "ans": 479,
      "ec": 480,
      "Ġim": 481,
      "ff": 482,
      "Ġpl": 483,
      "act": 484,
      "Ġint": 485,
      "pt": 486,
      "ĠU": 487,
      "ĠâĢ": 488,
      "ĠO": 489,
      "Ġtheir": 490,
      "ĠJ": 491,
      "ide": 492,
      "ust": 493,
      "Ġwhich": 494,
      "are": 495,
      "pl": 496,
      "per": 497,
      "age": 498,
      "ĠIn": 499,
      "ous": 500,
      "ag": 501,
      "Ġcont": 502,
      "Ġk": 503,
      "Ġdis": 504,
      "iz": 505,
      "Ġwhe": 506,
      "orm": 507,
      "ew": 508,
      "ak": 509,
      "cc": 510,
      "Ġall": 511,
      "Ġad": 512,
      "ater": 513,
      "ib": 514,
      "vel": 515,
      "Ġmore": 516,
      "Ġthey": 517,
      "ong": 518,
      "Ġ\"": 519,
      "ru": 520,
      "Ġinc": 521,
      "Ġhas": 522,
      "end": 523,
      "ary": 524,
      "ations": 525,
      "ult": 526,
      "Ġcomp": 527,
      "ood": 528,
      "ip": 529,
      "Ġres": 530,
      "Ġwill": 531,
      "Ġwere": 532,
      "Ġper": 533,
      "Ġcl": 534,
      "ire": 535,
      "Ġother": 536,
      "Ġ19": 537,
      "Ġdo": 538,
      "so": 539,
      "ual": 540,
      "Ġbut": 541,
      "ild": 542,
      "ĠTh": 543,
      "Ġman": 544,
      "ence": 545,
      "Ġone": 546,
      "ry": 547,
      "ks": 548,
      "ep": 549,
      "able": 550,
      "ose": 551,
      "ind": 552,
      "reat": 553,
      "ance": 554,
      "ase": 555,
      "Ġme": 556,
      "ents": 557,
      "ction": 558,
      "ign": 559,
      "ach": 560,
      "Ġar": 561,
      "ass": 562,
      "ace": 563,
      "Ġj": 564,
      "âĢĿ": 565,
      "ame": 566,
      "av": 567,
      "Ġyour": 568,
      "Ġun": 569,
      "ount": 570,
      "Ġte": 571,
      "ber": 572,
      "ice": 573,
      "ord": 574,
      "ress": 575,
      "Ġhis": 576,
      "au": 577,
      "Ġimp": 578,
      "Ġalso": 579,
      "Ġpart": 580,
      "Ġwho": 581,
      "Ġout": 582,
      "Ġinf": 583,
      "ake": 584,
      "Ġapp": 585,
      "ĠSt": 586,
      "ory": 587,
      "olog": 588,
      "ub": 589,
      "Ġpre": 590,
      "ack": 591,
      "ci": 592,
      "Ġev": 593,
      "Ġabout": 594,
      "Ġso": 595,
      "ition": 596,
      "ens": 597,
      "very": 598,
      "mer": 599,
      "Ġstud": 600,
      "one": 601,
      "ish": 602,
      "Ġtim": 603,
      "ors": 604,
      "ok": 605,
      "ite": 606,
      "ĠK": 607,
      ").": 608,
      "ound": 609,
      "Ġsy": 610,
      "Ġmay": 611,
      "Ġyear": 612,
      "ree": 613,
      "ces": 614,
      "Ġthan": 615,
      "Ġup": 616,
      "ian": 617,
      "Ġpe": 618,
      "Ġcomm": 619,
      "ue": 620,
      "ile": 621,
      "Ġrec": 622,
      "Ġbeen": 623,
      "ates": 624,
      "ric": 625,
      "ang": 626,
      "own": 627,
      "ĠCh": 628,
      "Ġbec": 629,
      "Ġits": 630,
      "Ġthem": 631,
      "ike": 632,
      "ays": 633,
      "Ġsome": 634,
      "ĠâĢľ": 635,
      "ail": 636,
      "low": 637,
      "Ġqu": 638,
      "vers": 639,
      "ons": 640,
      "ie": 641,
      "Ġinto": 642,
      "ĠV": 643,
      "nder": 644,
      "Ġthere": 645,
      "ough": 646,
      "Ġhad": 647,
      "Ġag": 648,
      "Ġgo": 649,
      "ph": 650,
      "ople": 651,
      "rough": 652,
      "ĠIt": 653,
      "erv": 654,
      "tern": 655,
      "lud": 656,
      "iff": 657,
      "lect": 658,
      "Ġnew": 659,
      "irst": 660,
      "Ġgen": 661,
      "ms": 662,
      "Ġbl": 663,
      "Ġra": 664,
      "Ġtw": 665,
      "Ġkn": 666,
      "Ġwhen": 667,
      "te": 668,
      "rit": 669,
      "Ġsa": 670,
      "Ġover": 671,
      "Ġcol": 672,
      "ren": 673,
      "lic": 674,
      "Ġthese": 675,
      "ings": 676,
      "Ġ-": 677,
      "Ġwork": 678,
      "ond": 679,
      "Ġtra": 680,
      "Ġwould": 681,
      "ts": 682,
      "ject": 683,
      "ove": 684,
      "ational": 685,
      "velop": 686,
      "Ġcons": 687,
      "Ġro": 688,
      "Ġtime": 689,
      "Ġ3": 690,
      "Ġuse": 691,
      "Ġrep": 692,
      "stem": 693,
      "hed": 694,
      "Ġmost": 695,
      "ys": 696,
      "Ġact": 697,
      "ally": 698,
      "ll": 699,
      "red": 700,
      "ause": 701,
      "ments": 702,
      "Ġdes": 703,
      "ific": 704,
      "ĠThis": 705,
      "Ġpeople": 706,
      "Ġunder": 707,
      "Ġ200": 708,
      "ob": 709,
      "ning": 710,
      "Ġbet": 711,
      "we": 712,
      "row": 713,
      "ities": 714,
      "Ġdiff": 715,
      "ook": 716,
      "Ġsuch": 717,
      "Ġrel": 718,
      "ative": 719,
      "Ġhow": 720,
      "Ġinclud": 721,
      "Ġfirst": 722,
      "les": 723,
      "ĠUn": 724,
      "Ġacc": 725,
      "),": 726,
      "Ġspec": 727,
      "Ġeff": 728,
      "alth": 729,
      "Ġlike": 730,
      "Ġif": 731,
      "Ġprov": 732,
      "Ġany": 733,
      "iss": 734,
      "ov": 735,
      "Ġph": 736,
      "Ġtr": 737,
      "ple": 738,
      "Ġonly": 739,
      "ced": 740,
      "Ġdevelop": 741,
      "ool": 742,
      "Ġno": 743,
      "Ġoff": 744,
      "Ġchild": 745,
      "ĠY": 746,
      "Ġtwo": 747,
      "Ġprodu": 748,
      "Ġused": 749,
      "Ġthrough": 750,
      "Ġsur": 751,
      "ular": 752,
      "ious": 753,
      "Ġ20": 754,
      "Ġexp": 755,
      "Ġneed": 756,
      "Ġour": 757,
      "Ġmany": 758,
      "ating": 759,
      "rib": 760,
      "fter": 761,
      "yp": 762,
      "Ġam": 763,
      "int": 764,
      "erm": 765,
      "Ġreg": 766,
      "arch": 767,
      "ied": 768,
      "Ġsystem": 769,
      "ath": 770,
      "cess": 771,
      "Ġsc": 772,
      "oss": 773,
      "round": 774,
      "uc": 775,
      "ne": 776,
      "ĠHe": 777,
      "als": 778,
      "uring": 779,
      "Ġwater": 780,
      "ics": 781,
      "Ġob": 782,
      "Ġpo": 783,
      "gra": 784,
      "ower": 785,
      "Ġwhat": 786,
      "Ġyears": 787,
      "Ġind": 788,
      "aw": 789,
      "Ġatt": 790,
      "rop": 791,
      "ise": 792,
      "Ġac": 793,
      "oth": 794,
      "ility": 795,
      "ark": 796,
      "ert": 797,
      "ink": 798,
      "Ġdec": 799,
      "hen": 800,
      "Ġem": 801,
      "iet": 802,
      "ten": 803,
      "ful": 804,
      "Ġadd": 805,
      "Ġass": 806,
      "ution": 807,
      "old": 808,
      "ased": 809,
      "Ġhel": 810,
      "ology": 811,
      "Ġrese": 812,
      "..": 813,
      "ange": 814,
      "ormation": 815,
      "Ġsub": 816,
      "sel": 817,
      "ble": 818,
      "ited": 819,
      "ible": 820,
      "meric": 821,
      "ife": 822,
      "Ġhelp": 823,
      "ade": 824,
      "Ġpr": 825,
      "Ġfe": 826,
      "Ġcould": 827,
      "Ġpol": 828,
      "Ġsupp": 829,
      "Ġ4": 830,
      "ists": 831,
      "cy": 832,
      "Ġinv": 833,
      "Ġmet": 834,
      "fore": 835,
      "In": 836,
      "ered": 837,
      "gan": 838,
      "Ġrem": 839,
      "Ġfl": 840,
      "Ġco": 841,
      "ween": 842,
      "ures": 843,
      "Ġinter": 844,
      "Ġshould": 845,
      "ident": 846,
      "Ġwhere": 847,
      "hes": 848,
      "chn": 849,
      "Ġdiffere": 850,
      "Ġpres": 851,
      "ft": 852,
      "wn": 853,
      "gy": 854,
      "Ġsm": 855,
      "Ġnum": 856,
      "uch": 857,
      "ins": 858,
      "ng": 859,
      "ick": 860,
      "Ġbetween": 861,
      "Ġ5": 862,
      "ĠAs": 863,
      "Ġ18": 864,
      "ily": 865,
      "its": 866,
      "Ġsaid": 867,
      "Ġear": 868,
      "ĠAmeric": 869,
      "Ġcount": 870,
      "ict": 871,
      "Ġhum": 872,
      "ivers": 873,
      "ron": 874,
      "land": 875,
      "chool": 876,
      "ract": 877,
      "Ġwell": 878,
      "Ġlar": 879,
      "Ġmed": 880,
      "Ġfound": 881,
      "Ġtrans": 882,
      "ex": 883,
      "Ġcent": 884,
      "ism": 885,
      "ever": 886,
      "Ġexam": 887,
      "Ġform": 888,
      "Ġcall": 889,
      "ually": 890,
      "Ġmod": 891,
      "Ġlong": 892,
      "cent": 893,
      "ants": 894,
      "cer": 895,
      "vern": 896,
      "Ġhigh": 897,
      "Ġinformation": 898,
      "urn": 899,
      "Ġref": 900,
      "Ġdet": 901,
      "Ġpers": 902,
      "Ġthose": 903,
      "ines": 904,
      "Ġafter": 905,
      "Ġpat": 906,
      "ural": 907,
      "ef": 908,
      "Ġpub": 909,
      "other": 910,
      "Ġloc": 911,
      "Ġbu": 912,
      "ĠPro": 913,
      "Ġmake": 914,
      "Ġinst": 915,
      "Ġjust": 916,
      "ature": 917,
      "Ġeffect": 918,
      "itt": 919,
      "vent": 920,
      ".\"": 921,
      "omm": 922,
      "Ġget": 923,
      "Ġhealth": 924,
      "Ġcell": 925,
      "Ġher": 926,
      "Ġworld": 927,
      "Ġeven": 928,
      "Th": 929,
      "ically": 930,
      "ases": 931,
      "oy": 932,
      "Ġgener": 933,
      "Ġdef": 934,
      "Ġext": 935,
      "Ġimport": 936,
      "cept": 937,
      "con": 938,
      "ds": 939,
      "ck": 940,
      "Ġbecause": 941,
      "ĠAl": 942,
      "Ġed": 943,
      "Ġsci": 944,
      "Ġdist": 945,
      "iron": 946,
      "Ġincre": 947,
      "roup": 948,
      "Ġknow": 949,
      "Ġvery": 950,
      "Ġthen": 951,
      "Ġcar": 952,
      "Ġway": 953,
      "Ġdisc": 954,
      "Ġsee": 955,
      "ork": 956,
      "led": 957,
      "io": 958,
      "Ġ201": 959,
      "||": 960,
      "Ġsim": 961,
      "ollow": 962,
      "ata": 963,
      "Ġsign": 964,
      "Ġright": 965,
      "Ġtechn": 966,
      "iew": 967,
      "Ġsame": 968,
      "ues": 969,
      "Ġgra": 970,
      "ved": 971,
      "get": 972,
      "Ġexper": 973,
      "Ġtyp": 974,
      "Ġpartic": 975,
      "Ġfact": 976,
      "omet": 977,
      "ĠWh": 978,
      "Ġbeing": 979,
      "aking": 980,
      "Ġke": 981,
      "ives": 982,
      "Ġmon": 983,
      "'t": 984,
      "Ġrequ": 985,
      "Ġdifferent": 986,
      "hing": 987,
      "Ġsec": 988,
      "Ġresult": 989,
      "ruct": 990,
      "arm": 991,
      "ized": 992,
      "Ġmuch": 993,
      "Ġevery": 994,
      "Ġeach": 995,
      "Ġresp": 996,
      "Ġstudy": 997,
      "Ġduring": 998,
      "Ġvar": 999,
      "Ġmade": 1000,
      "the": 1001,
      "Ġaut": 1002,
      "Ġset": 1003,
      "Ġfam": 1004,
      "ather": 1005,
      "ward": 1006,
      "ergy": 1007,
      "ection": 1008,
      "Ġcre": 1009,
      "Ġlear": 1010,
      "Ġche": 1011,
      "viron": 1012,
      "ĠCon": 1013,
      "iversity": 1014,
      "orn": 1015,
      "ages": 1016,
      "Ġchildren": 1017,
      "Ġback": 1018,
      "ness": 1019,
      "Ġstate": 1020,
      "Ġent": 1021,
      "Ġtest": 1022,
      "xt": 1023,
      "Ġart": 1024,
      "Ġpop": 1025,
      "000": 1026,
      "Ġsk": 1027,
      "Ġcur": 1028,
      "Ġmem": 1029,
      "Ġshe": 1030,
      "ĠâĢĵ": 1031,
      "Ġcommun": 1032,
      "gg": 1033,
      "Ġtreat": 1034,
      "rol": 1035,
      "Ġmy": 1036,
      "ĠFor": 1037,
      "irect": 1038,
      "Ġprocess": 1039,
      "ros": 1040,
      "form": 1041,
      "Ġfollow": 1042,
      "ven": 1043,
      "ĠWe": 1044,
      "ince": 1045,
      "Ġown": 1046,
      "ars": 1047,
      "Ġprogra": 1048,
      "ĠNew": 1049,
      "ize": 1050,
      "Ġsoc": 1051,
      "ĠThey": 1052,
      "ĠAn": 1053,
      "ished": 1054,
      "Ġlevel": 1055,
      "ting": 1056,
      "Ġdep": 1057,
      "ient": 1058,
      "Ġgroup": 1059,
      "ined": 1060,
      "any": 1061,
      "Ġfind": 1062,
      "Ġins": 1063,
      "ute": 1064,
      "Ġproble": 1065,
      "Ġnow": 1066,
      "Ġdise": 1067,
      "Ġsmall": 1068,
      "und": 1069,
      "Ġshow": 1070,
      "ody": 1071,
      ",\"": 1072,
      "Ġpower": 1073,
      "Ġmin": 1074,
      "Ġlife": 1075,
      "Ġcap": 1076,
      "Ġagain": 1077,
      "Ġ6": 1078,
      "Ġcomple": 1079,
      "ran": 1080,
      "ury": 1081,
      "omen": 1082,
      "Ġschool": 1083,
      "Ġimportant": 1084,
      "Ġocc": 1085,
      "Ġend": 1086,
      "eg": 1087,
      "ĠAr": 1088,
      "vironment": 1089,
      "Ġdoes": 1090,
      "Ġgovern": 1091,
      "19": 1092,
      "ĠIf": 1093,
      "iel": 1094,
      "ty": 1095,
      "Ġbo": 1096,
      "Ġresearch": 1097,
      "hip": 1098,
      ".âĢĿ": 1099,
      "Ġboth": 1100,
      "Ġbefore": 1101,
      "Ġelect": 1102,
      "Ġhist": 1103,
      "Ġlead": 1104,
      "oh": 1105,
      "ides": 1106,
      "Ġperson": 1107,
      "Ġav": 1108,
      "Ġhim": 1109,
      "read": 1110,
      "ix": 1111,
      "ale": 1112,
      "imate": 1113,
      "hers": 1114,
      "Ġgrow": 1115,
      "Ġnumber": 1116,
      "nce": 1117,
      "up": 1118,
      "inal": 1119,
      "ĠSp": 1120,
      "ices": 1121,
      "Ġgl": 1122,
      "Ġstr": 1123,
      "Ġvis": 1124,
      "Ġdown": 1125,
      "Ġoften": 1126,
      "gen": 1127,
      "ave": 1128,
      "ially": 1129,
      "Ġdata": 1130,
      "Ġread": 1131,
      "Ġthree": 1132,
      "Ġusing": 1133,
      "Ġexpl": 1134,
      "ral": 1135,
      "ital": 1136,
      "Ġ10": 1137,
      "Ġma": 1138,
      "cl": 1139,
      "Ġless": 1140,
      "Ġprot": 1141,
      "Ġser": 1142,
      "ves": 1143,
      "ah": 1144,
      "Ġplan": 1145,
      "Ġstudents": 1146,
      "Ġreport": 1147,
      "ĠInd": 1148,
      "Ġhuman": 1149,
      "ving": 1150,
      "Ġlarge": 1151,
      "ters": 1152,
      "ected": 1153,
      "rent": 1154,
      "ulation": 1155,
      "Ġcalled": 1156,
      "stit": 1157,
      "ĠBut": 1158,
      "âĢĶ": 1159,
      "Ġbel": 1160,
      "Ġposs": 1161,
      "Ġorgan": 1162,
      "Ġexample": 1163,
      "Ġgood": 1164,
      "Ġ199": 1165,
      "ier": 1166,
      "Ġest": 1167,
      "Ġris": 1168,
      "ock": 1169,
      "ĠHow": 1170,
      "Ġca": 1171,
      "ared": 1172,
      "Ġdid": 1173,
      "Ġfood": 1174,
      "self": 1175,
      "day": 1176,
      "Ġ7": 1177,
      ".,": 1178,
      "Ġaround": 1179,
      "Ġactiv": 1180,
      "Ġsol": 1181,
      "Ġfun": 1182,
      "stand": 1183,
      "air": 1184,
      "ains": 1185,
      "bers": 1186,
      "Ġcommon": 1187,
      "Ġdesign": 1188,
      "Ġmust": 1189,
      "Ġwhile": 1190,
      "Ġhand": 1191,
      "der": 1192,
      "ull": 1193,
      "orth": 1194,
      "Ġcond": 1195,
      "me": 1196,
      "Ġtake": 1197,
      "Ġgreat": 1198,
      "ring": 1199,
      "uss": 1200,
      "ee": 1201,
      "lear": 1202,
      "osed": 1203,
      "ivid": 1204,
      "outh": 1205,
      "Ġland": 1206,
      "Ġcontin": 1207,
      "ger": 1208,
      "ted": 1209,
      "Ġcour": 1210,
      "Ġincluding": 1211,
      "Ġclass": 1212,
      "Ġlook": 1213,
      "Ġmain": 1214,
      "iver": 1215,
      "Ġret": 1216,
      "Ġday": 1217,
      "Ġpublic": 1218,
      "Ġredu": 1219,
      "way": 1220,
      "ĠIs": 1221,
      "Ġenergy": 1222,
      "iqu": 1223,
      "ians": 1224,
      "This": 1225,
      "Ġpercent": 1226,
      "Ġconf": 1227,
      "to": 1228,
      "Ġaff": 1229,
      "ality": 1230,
      "Ġserv": 1231,
      "akes": 1232,
      "reen": 1233,
      "Ġ8": 1234,
      "Ġbody": 1235,
      "Ġsupport": 1236,
      "Ġadv": 1237,
      "Ġop": 1238,
      "itions": 1239,
      "Ġconsid": 1240,
      "ouse": 1241,
      "eral": 1242,
      "ĠUniversity": 1243,
      "ĠAmerican": 1244,
      "ination": 1245,
      "Ġstand": 1246,
      "Ġdirect": 1247,
      "Ġwrit": 1248,
      "Ġmill": 1249,
      "Ġthough": 1250,
      "Ġstill": 1251,
      "Ġenvironment": 1252,
      "ead": 1253,
      "Ġknown": 1254,
      "Ġequ": 1255,
      "Ġcare": 1256,
      "conom": 1257,
      "Ġdisease": 1258,
      "ton": 1259,
      "aterial": 1260,
      "iety": 1261,
      "ior": 1262,
      "Ġallow": 1263,
      "Wh": 1264,
      "ources": 1265,
      "Ġchar": 1266,
      "com": 1267,
      "acter": 1268,
      "ĠAnd": 1269,
      "Ġgovernment": 1270,
      "ogra": 1271,
      "ired": 1272,
      "Ġplace": 1273,
      "Ġval": 1274,
      "Ġsl": 1275,
      "Ġstart": 1276,
      "oun": 1277,
      "Ġsays": 1278,
      "rain": 1279,
      "Ġchang": 1280,
      "ax": 1281,
      "amp": 1282,
      "iod": 1283,
      "Ġbeh": 1284,
      "ris": 1285,
      "Ġcontrol": 1286,
      "ross": 1287,
      "Ġdesc": 1288,
      "Ġcells": 1289,
      "Ġphys": 1290,
      "Ġblood": 1291,
      "arc": 1292,
      "Ġ9": 1293,
      "erest": 1294,
      "Ġscient": 1295,
      "Ġfew": 1296,
      "oci": 1297,
      "Ġdevelopment": 1298,
      "Ġmat": 1299,
      "Ġiss": 1300,
      "Ġcor": 1301,
      "ional": 1302,
      "Ġtem": 1303,
      "âĢľ": 1304,
      "ĠDe": 1305,
      "arent": 1306,
      "Ġspecies": 1307,
      "ium": 1308,
      "oid": 1309,
      "ission": 1310,
      "ense": 1311,
      "ries": 1312,
      "Ġsomet": 1313,
      "Ġanother": 1314,
      "ner": 1315,
      "Ġarea": 1316,
      "Ġair": 1317,
      "Ġgu": 1318,
      "Ġquest": 1319,
      "Ġprogram": 1320,
      "els": 1321,
      "20": 1322,
      "man": 1323,
      "Ġmight": 1324,
      "ĠCol": 1325,
      "Ġappro": 1326,
      "Ġlaw": 1327,
      "lished": 1328,
      "Ġwithout": 1329,
      "Ġeduc": 1330,
      "iving": 1331,
      "Ġchange": 1332,
      "ime": 1333,
      "ording": 1334,
      "ccess": 1335,
      "Ġthink": 1336,
      "Ġnear": 1337,
      "osp": 1338,
      "jor": 1339,
      "Ġleg": 1340,
      "Ġcaus": 1341,
      "Ġmaterial": 1342,
      "hod": 1343,
      "de": 1344,
      "ified": 1345,
      "Ġproject": 1346,
      "ug": 1347,
      "here": 1348,
      "Ġinclude": 1349,
      "ote": 1350,
      "Ġdem": 1351,
      ",âĢĿ": 1352,
      "use": 1353,
      "ration": 1354,
      "Ġwomen": 1355,
      "ertain": 1356,
      "itive": 1357,
      "ĠRes": 1358,
      "ological": 1359,
      "ned": 1360,
      "line": 1361,
      "Ġmil": 1362,
      "Ġbre": 1363,
      "Ġlight": 1364,
      "Ġagainst": 1365,
      "ĠThese": 1366,
      "ien": 1367,
      "ĠUnited": 1368,
      "Ġoper": 1369,
      "ĠComm": 1370,
      "ĠPh": 1371,
      "Ġmeas": 1372,
      "Ġide": 1373,
      "lish": 1374,
      "rodu": 1375,
      "ization": 1376,
      "Ġproduct": 1377,
      "Ġpresent": 1378,
      "ield": 1379,
      "Ġbir": 1380,
      "ina": 1381,
      "Ġpract": 1382,
      "ering": 1383,
      "Ġpass": 1384,
      "Ġeas": 1385,
      "Ġwithin": 1386,
      "Ġoccur": 1387,
      "iven": 1388,
      "Ġinterest": 1389,
      "oms": 1390,
      "gin": 1391,
      "Ġeconom": 1392,
      "tt": 1393,
      "Ġ'": 1394,
      "ĠAd": 1395,
      "Ġunderstand": 1396,
      "Ġbelie": 1397,
      "bs": 1398,
      "ĠThere": 1399,
      "ained": 1400,
      "ason": 1401,
      "ets": 1402,
      "Ġanim": 1403,
      "Ġlast": 1404,
      "Ġbuild": 1405,
      "Ġearly": 1406,
      "Ġeng": 1407,
      "Ġsever": 1408,
      "Ġbas": 1409,
      "sp": 1410,
      "Ġident": 1411,
      "ently": 1412,
      "less": 1413,
      "med": 1414,
      "Ġcurrent": 1415,
      "Ġant": 1416,
      "gn": 1417,
      "Ġmove": 1418,
      "sy": 1419,
      "of": 1420,
      "ability": 1421,
      "ats": 1422,
      "ients": 1423,
      "ential": 1424,
      "...": 1425,
      "ĠCan": 1426,
      "Ġsocial": 1427,
      "Ġlow": 1428,
      "ĠSe": 1429,
      "Ġold": 1430,
      "Ġdr": 1431,
      "ption": 1432,
      "att": 1433,
      "ĠEng": 1434,
      "eng": 1435,
      "ource": 1436,
      "ww": 1437,
      "atic": 1438,
      "ividual": 1439,
      "ator": 1440,
      "Ġpar": 1441,
      "cing": 1442,
      "Ġrest": 1443,
      "ĠStates": 1444,
      "10": 1445,
      "Ġwar": 1446,
      "Ġprof": 1447,
      "Ġdon": 1448,
      "atural": 1449,
      "hor": 1450,
      "ining": 1451,
      "Ġ15": 1452,
      "ĠNational": 1453,
      "Ġsecond": 1454,
      "ĠEn": 1455,
      "Ġtreatment": 1456,
      "ograph": 1457,
      "Ġprovide": 1458,
      "rist": 1459,
      "Ġpos": 1460,
      "az": 1461,
      "Ġtop": 1462,
      "Ġsay": 1463,
      "Ġmajor": 1464,
      "Ġmar": 1465,
      "Ġobject": 1466,
      "It": 1467,
      "Ġdev": 1468,
      "Ġmus": 1469,
      "Ġopp": 1470,
      "Ġele": 1471,
      "ived": 1472,
      "Ġunt": 1473,
      "Ġpolit": 1474,
      "ĠYou": 1475,
      "ĠCl": 1476,
      "Ġfamily": 1477,
      "ern": 1478,
      "alk": 1479,
      "Ġhome": 1480,
      "Ġrisk": 1481,
      "Ġfore": 1482,
      "Ġparticular": 1483,
      "Ġwant": 1484,
      "Ġseveral": 1485,
      "Ġpoint": 1486,
      "Ġtri": 1487,
      "Ġconst": 1488,
      "Ġbecome": 1489,
      "ify": 1490,
      "ids": 1491,
      "Ġben": 1492,
      "Ġ&": 1493,
      "ĠRe": 1494,
      "though": 1495,
      "Ġinvol": 1496,
      "esp": 1497,
      "Ġlim": 1498,
      "rap": 1499,
      "Ġorig": 1500,
      "Ġavail": 1501,
      "ĠCent": 1502,
      "Ġhere": 1503,
      "Ġpot": 1504,
      "Ġareas": 1505,
      "Ġprovid": 1506,
      "Ġhistory": 1507,
      "ision": 1508,
      "inc": 1509,
      "Ġlocal": 1510,
      "ĠMed": 1511,
      "Ġpain": 1512,
      "Ġtoo": 1513,
      "Ġperform": 1514,
      "Ġprop": 1515,
      "ards": 1516,
      "Ġindividual": 1517,
      "eed": 1518,
      "Ġtre": 1519,
      "Ġfour": 1520,
      "Ġ17": 1521,
      "ittle": 1522,
      "Ġpur": 1523,
      "Ġet": 1524,
      "Ġname": 1525,
      "Ġimpro": 1526,
      "Ġplay": 1527,
      "Ġaddition": 1528,
      "Ġmethod": 1529,
      "Ġsit": 1530,
      "Ġindu": 1531,
      "Ġdra": 1532,
      "Ġter": 1533,
      "Ġfin": 1534,
      "ention": 1535,
      "ĠHowever": 1536,
      "Ġtimes": 1537,
      "ik": 1538,
      "Ġve": 1539,
      "ret": 1540,
      "Ġsym": 1541,
      "par": 1542,
      "imes": 1543,
      "ĠWhen": 1544,
      "Ġrun": 1545,
      "Ġcult": 1546,
      "ames": 1547,
      "ĠâĢĶ": 1548,
      "Ġcomput": 1549,
      "Ġbi": 1550,
      "ware": 1551,
      "lu": 1552,
      "angu": 1553,
      "Ġbetter": 1554,
      "ĠZ": 1555,
      "Ġkeep": 1556,
      "face": 1557,
      "Ġfar": 1558,
      "Ġsuccess": 1559,
      "ĠSh": 1560,
      "Ġcancer": 1561,
      "Ġmen": 1562,
      "Ġcause": 1563,
      "Ġcountry": 1564,
      "olution": 1565,
      "abor": 1566,
      "Ġlo": 1567,
      "idence": 1568,
      "Ġsince": 1569,
      "Ġopen": 1570,
      "urop": 1571,
      "Ġbest": 1572,
      "Ġpress": 1573,
      "Ġlater": 1574,
      "ĠQ": 1575,
      "ories": 1576,
      "Ġmark": 1577,
      "Ġfollowing": 1578,
      "ĠEar": 1579,
      "Ġpossible": 1580,
      "Ġdel": 1581,
      "Ġprom": 1582,
      "une": 1583,
      "ank": 1584,
      "ably": 1585,
      "Ġamong": 1586,
      "Ġcost": 1587,
      "Ġorder": 1588,
      "view": 1589,
      "Ġpost": 1590,
      "icle": 1591,
      "Ġ[": 1592,
      "Ġanal": 1593,
      "ended": 1594,
      "Ġperiod": 1595,
      "Ġdeterm": 1596,
      "Ġnon": 1597,
      "ĠAt": 1598,
      "ental": 1599,
      "irc": 1600,
      "ways": 1601,
      "Ġfre": 1602,
      "Ġavailable": 1603,
      "Ġable": 1604,
      "Ġmeans": 1605,
      "Ġrad": 1606,
      "ek": 1607,
      "ged": 1608,
      "Ġcertain": 1609,
      "omp": 1610,
      "ole": 1611,
      "Ġhig": 1612,
      "Ġresearc": 1613,
      "ternational": 1614,
      "rug": 1615,
      "atory": 1616,
      "Ġaccess": 1617,
      "ĠTo": 1618,
      "Ġpri": 1619,
      "Ġproper": 1620,
      "Ġproblems": 1621,
      "Ġsaf": 1622,
      "etic": 1623,
      "Ġbro": 1624,
      "resent": 1625,
      "Ġview": 1626,
      "ills": 1627,
      "ĠEx": 1628,
      "Ġfree": 1629,
      "ples": 1630,
      "Ġput": 1631,
      "Ġcentury": 1632,
      "urope": 1633,
      "ggest": 1634,
      "Ġothers": 1635,
      "Ġlittle": 1636,
      "Ġplant": 1637,
      "Ġbased": 1638,
      "ored": 1639,
      "18": 1640,
      "Ġreal": 1641,
      "Ġ12": 1642,
      "Ġprevent": 1643,
      "Ġchem": 1644,
      "ym": 1645,
      "Ġel": 1646,
      "ĠPl": 1647,
      "Ġhead": 1648,
      "We": 1649,
      "ĠSci": 1650,
      "Ġ$": 1651,
      "Ġstruct": 1652,
      "Ġuntil": 1653,
      "12": 1654,
      "Ġfac": 1655,
      "ured": 1656,
      "ohn": 1657,
      "over": 1658,
      "alf": 1659,
      "Ġamount": 1660,
      "urther": 1661,
      "Ġrecord": 1662,
      "Ġhapp": 1663,
      "Ġobs": 1664,
      "work": 1665,
      "ience": 1666,
      "Ġcase": 1667,
      "iness": 1668,
      "Ġmonth": 1669,
      "Ġage": 1670,
      "aper": 1671,
      "Ġappear": 1672,
      "Ġmillion": 1673,
      "Ġshort": 1674,
      "sw": 1675,
      "ilar": 1676,
      "ling": 1677,
      "oks": 1678,
      "Ġsuggest": 1679,
      "ĠChrist": 1680,
      "Ġtemper": 1681,
      "Ġlist": 1682,
      "ormal": 1683,
      "rid": 1684,
      "Ġturn": 1685,
      "cial": 1686,
      "Ġrece": 1687,
      "Ġmean": 1688,
      "Ġ--": 1689,
      "Ġsignific": 1690,
      "ither": 1691,
      "ploy": 1692,
      "Ġspace": 1693,
      "aken": 1694,
      "SA": 1695,
      "ĠGod": 1696,
      "Ġgiven": 1697,
      "ances": 1698,
      "ends": 1699,
      "Ġer": 1700,
      "let": 1701,
      "Ġproblem": 1702,
      "ĠOn": 1703,
      "Ġfunction": 1704,
      "ung": 1705,
      "ised": 1706,
      "Ġdi": 1707,
      "pr": 1708,
      "aps": 1709,
      "Ġbenef": 1710,
      "iter": 1711,
      "ately": 1712,
      "Ġsing": 1713,
      "Ġhard": 1714,
      "Ġnatural": 1715,
      "Ġlevels": 1716,
      "be": 1717,
      "Ġside": 1718,
      "ogn": 1719,
      "Ġlet": 1720,
      "Ġtype": 1721,
      "dition": 1722,
      "orts": 1723,
      "Ġsw": 1724,
      "Ġfil": 1725,
      "Ġseem": 1726,
      "Ġdeath": 1727,
      "Ġleast": 1728,
      "Ġtechnology": 1729,
      "ĠEurope": 1730,
      "obal": 1731,
      "Ġparent": 1732,
      "Ġthings": 1733,
      "ects": 1734,
      "ash": 1735,
      "ler": 1736,
      "Ġbook": 1737,
      "Ġpopulation": 1738,
      "ĠOr": 1739,
      "Ġcomb": 1740,
      "Ġlikely": 1741,
      "As": 1742,
      "ocu": 1743,
      "ape": 1744,
      "Ġusually": 1745,
      "Ġcome": 1746,
      "Ġdescrib": 1747,
      "Ġindust": 1748,
      "Ġassoci": 1749,
      "ox": 1750,
      "rate": 1751,
      "por": 1752,
      "ĠAf": 1753,
      "Ġsite": 1754,
      "Ġclear": 1755,
      "Ġ0": 1756,
      "Ġlangu": 1757,
      "Ġyoung": 1758,
      "ĠAll": 1759,
      "ope": 1760,
      "Ġleft": 1761,
      "isc": 1762,
      "Ġrele": 1763,
      "ocus": 1764,
      "Ġpatients": 1765,
      "âĢĵ": 1766,
      "idd": 1767,
      "Ġspecial": 1768,
      "ators": 1769,
      "orld": 1770,
      "erc": 1771,
      "oph": 1772,
      "oot": 1773,
      "Ġsystems": 1774,
      "Ġbecame": 1775,
      "If": 1776,
      "ont": 1777,
      "11": 1778,
      "not": 1779,
      "Ġcal": 1780,
      "Ġ198": 1781,
      "Ġauthor": 1782,
      "itor": 1783,
      "Ġapplic": 1784,
      "elf": 1785,
      "min": 1786,
      "icult": 1787,
      "vious": 1788,
      "ones": 1789,
      "Ġdam": 1790,
      "Ġchanges": 1791,
      "Ġabove": 1792,
      "aster": 1793,
      "by": 1794,
      "ication": 1795,
      "sc": 1796,
      "Ġgre": 1797,
      "Ġlearning": 1798,
      "aim": 1799,
      "Ġ.": 1800,
      "Ġestab": 1801,
      "ley": 1802,
      "Ġstudies": 1803,
      "Ġill": 1804,
      "hem": 1805,
      "Ġresults": 1806,
      "Ġmot": 1807,
      "Ġmult": 1808,
      "Ġcirc": 1809,
      "oman": 1810,
      "Ġcourse": 1811,
      "Ġresearchers": 1812,
      "Ġconditions": 1813,
      "Ġdays": 1814,
      "Ġalong": 1815,
      "ĠNorth": 1816,
      "Ġbus": 1817,
      "ortun": 1818,
      "NA": 1819,
      "St": 1820,
      "nal": 1821,
      "Ġheart": 1822,
      "Ġpast": 1823,
      "Ġ16": 1824,
      "ode": 1825,
      "ands": 1826,
      "Ġspecific": 1827,
      "erence": 1828,
      "Ġcountries": 1829,
      "ledge": 1830,
      "ĠEarth": 1831,
      "Ġey": 1832,
      "uture": 1833,
      "Ġflow": 1834,
      "ember": 1835,
      "enn": 1836,
      "Ġsomething": 1837,
      "Ġpolitical": 1838,
      "Ġnet": 1839,
      "ĠBe": 1840,
      "Ġsurface": 1841,
      "most": 1842,
      "Ġenough": 1843,
      "oint": 1844,
      "Ġeffects": 1845,
      "50": 1846,
      "ray": 1847,
      "Ġnext": 1848,
      "wh": 1849,
      "ĠDr": 1850,
      "Ġz": 1851,
      "for": 1852,
      "Ġimpact": 1853,
      "Ġhowever": 1854,
      "Ġbehav": 1855,
      "ĠTe": 1856,
      "Ġvol": 1857,
      "ane": 1858,
      "ression": 1859,
      "ences": 1860,
      "Ġenc": 1861,
      "Ġdoct": 1862,
      "unt": 1863,
      "Ġcases": 1864,
      "ales": 1865,
      "cle": 1866,
      "Ġdrug": 1867,
      "Ġbegin": 1868,
      "Ġnever": 1869,
      "Ġcolle": 1870,
      "Ġcrit": 1871,
      "ĠWhat": 1872,
      "Ġmembers": 1873,
      "Ġtoget": 1874,
      "Ġexist": 1875,
      "Ġtogether": 1876,
      "Ġinvest": 1877,
      "Ġgeneral": 1878,
      "earch": 1879,
      "Ġlearn": 1880,
      "Ġaway": 1881,
      "Ġtoday": 1882,
      "ots": 1883,
      "selves": 1884,
      "eb": 1885,
      "Ġsignificant": 1886,
      "Ġcreat": 1887,
      "Ġhy": 1888,
      "ĠJohn": 1889,
      "An": 1890,
      "Ġwords": 1891,
      "Ġmaking": 1892,
      "ott": 1893,
      "Ġsimilar": 1894,
      "Ġskin": 1895,
      "Ġ30": 1896,
      "mber": 1897,
      "atch": 1898,
      "ours": 1899,
      "ison": 1900,
      "ĠSo": 1901,
      "Ġconn": 1902,
      "30": 1903,
      "ĠBrit": 1904,
      "Ġcomplete": 1905,
      "tain": 1906,
      "ued": 1907,
      "ĠWar": 1908,
      "ecially": 1909,
      "Ġmov": 1910,
      "asing": 1911,
      "agement": 1912,
      "app": 1913,
      "Ġworks": 1914,
      "Ġeducation": 1915,
      "Ġdue": 1916,
      "Ġplac": 1917,
      "What": 1918,
      "Ġprofess": 1919,
      "Ġscience": 1920,
      "lement": 1921,
      "ĠAfric": 1922,
      "Ġterm": 1923,
      "Ġincrease": 1924,
      "Ġrights": 1925,
      "rim": 1926,
      "ird": 1927,
      "Ġdeveloped": 1928,
      "ilt": 1929,
      "ump": 1930,
      "--": 1931,
      "val": 1932,
      "ruction": 1933,
      "Ġrepresent": 1934,
      "Ġrespons": 1935,
      "ivil": 1936,
      "Ġblack": 1937,
      "Ġprim": 1938,
      "Ġfeel": 1939,
      "Ġnecess": 1940,
      "duct": 1941,
      "ending": 1942,
      "Ġstrong": 1943,
      "Ġteam": 1944,
      "ribut": 1945,
      "Ġfocus": 1946,
      "Ġmedical": 1947,
      "mp": 1948,
      "omes": 1949,
      "Ġask": 1950,
      "ffic": 1951,
      "af": 1952,
      "Ġhaving": 1953,
      "ĠOne": 1954,
      "ĠHealth": 1955,
      "iting": 1956,
      "Ġbrain": 1957,
      "ĠSoc": 1958,
      "There": 1959,
      "ervation": 1960,
      "Ġneeds": 1961,
      "ilities": 1962,
      "especially": 1963,
      "Ġcho": 1964,
      "Ġcommunity": 1965,
      "ream": 1966,
      "ĠUS": 1967,
      "Ġcharacter": 1968,
      "Ġnational": 1969,
      "amm": 1970,
      "Ġdifficult": 1971,
      "ipp": 1972,
      "right": 1973,
      "ĠThat": 1974,
      "Ġ14": 1975,
      "sych": 1976,
      "ires": 1977,
      "ĠGen": 1978,
      "overed": 1979,
      "Ġvir": 1980,
      "ery": 1981,
      "Ġcity": 1982,
      "Ġfive": 1983,
      "Ġphot": 1984,
      "Ġtru": 1985,
      "For": 1986,
      "ĠSc": 1987,
      "ĠAmerica": 1988,
      "ae": 1989,
      "ĠSy": 1990,
      "Ġoffic": 1991,
      "200": 1992,
      "iation": 1993,
      "ĠGerm": 1994,
      "Ġplants": 1995,
      "aves": 1996,
      "Ġcontain": 1997,
      "lo": 1998,
      "rel": 1999,
      "ĠGo": 2000,
      "artment": 2001,
      "ges": 2002,
      "ĠJew": 2003,
      "Ġpolic": 2004,
      "ively": 2005,
      "Ġkind": 2006,
      "Ġoil": 2007,
      "Ġfield": 2008,
      "Ġfurther": 2009,
      "Ġinflu": 2010,
      "ule": 2011,
      "Ġdiscuss": 2012,
      "Ġtry": 2013,
      "Ġsubject": 2014,
      "Ġfuture": 2015,
      "ĠSome": 2016,
      "ĠMay": 2017,
      "Ġworking": 2018,
      "Ġrequire": 2019,
      "Ġvarious": 2020,
      "ency": 2021,
      "Ġgive": 2022,
      "Ġsun": 2023,
      "Ġimm": 2024,
      "Ġprob": 2025,
      "istic": 2026,
      "Ġloss": 2027,
      "ibility": 2028,
      "Ġsingle": 2029,
      "Ġground": 2030,
      "Ġacross": 2031,
      "Ġsum": 2032,
      "ublic": 2033,
      "Ġcreate": 2034,
      "ĠâĢĺ": 2035,
      "ederal": 2036,
      "ĠCal": 2037,
      "ĠWorld": 2038,
      "Ġneg": 2039,
      "Ġlower": 2040,
      "osis": 2041,
      "Ġgr": 2042,
      "acy": 2043,
      "ude": 2044,
      "ique": 2045,
      "side": 2046,
      "Ġ11": 2047,
      "Ġcollect": 2048,
      "ready": 2049,
      "Ġfish": 2050,
      "ĠLe": 2051,
      "Ġitself": 2052,
      "Ġhigher": 2053,
      "Ġfund": 2054,
      "Ġ197": 2055,
      "Ġwhether": 2056,
      "Ġrepl": 2057,
      "Ġseen": 2058,
      "Ġconsum": 2059,
      "Ġalways": 2060,
      "Ġtaken": 2061,
      "Ġdia": 2062,
      "Ġlanguage": 2063,
      "rated": 2064,
      "Ġwr": 2065,
      "Ġline": 2066,
      "Ġann": 2067,
      "Ġindic": 2068,
      "Ġgroups": 2069,
      "Ġespecially": 2070,
      "stitute": 2071,
      "Ġfra": 2072,
      "Ġteac": 2073,
      "Ġchemical": 2074,
      "Ġreact": 2075,
      "Ġgoing": 2076,
      "Ġfull": 2077,
      "Ġwhy": 2078,
      "Ġrelations": 2079,
      "Ġdocu": 2080,
      "Ġlive": 2081,
      "Ġcomputer": 2082,
      "bon": 2083,
      "ĠDep": 2084,
      "Ġresources": 2085,
      "my": 2086,
      "ĠRep": 2087,
      "Ġphysical": 2088,
      "ĠAct": 2089,
      "ĠHis": 2090,
      "oney": 2091,
      "Ġtool": 2092,
      "ĠSouth": 2093,
      "Ġparticip": 2094,
      "Ġpublished": 2095,
      "Ġprotect": 2096,
      "sh": 2097,
      "Ġevidence": 2098,
      "Ġknowledge": 2099,
      "Ġrange": 2100,
      "ules": 2101,
      "Ġrather": 2102,
      "Ġways": 2103,
      "Ġred": 2104,
      "Ġclimate": 2105,
      "Ġregion": 2106,
      "Ġri": 2107,
      "Ġfail": 2108,
      "urch": 2109,
      "ĠAust": 2110,
      "ĠYork": 2111,
      "iam": 2112,
      "Ġscientists": 2113,
      "Ġopt": 2114,
      "Ġfall": 2115,
      "Ġsex": 2116,
      "Ġproduction": 2117,
      "icine": 2118,
      "ptoms": 2119,
      "Ġgrowth": 2120,
      "Ġalready": 2121,
      "Ġclose": 2122,
      "son": 2123,
      "Ġstep": 2124,
      "Ġactivity": 2125,
      "Ġword": 2126,
      "Ġhalf": 2127,
      "ĠCar": 2128,
      "Ġreturn": 2129,
      "ann": 2130,
      "thing": 2131,
      "ttp": 2132,
      "Ġstates": 2133,
      "Ġwhite": 2134,
      "ysis": 2135,
      "Ġanimals": 2136,
      "ches": 2137,
      "Ġlay": 2138,
      "ĠState": 2139,
      "Ġwind": 2140,
      "Ġprote": 2141,
      "uel": 2142,
      "ulations": 2143,
      "ĠGe": 2144,
      "Ġthemselves": 2145,
      "Ġquestion": 2146,
      "Ġsource": 2147,
      "Ġmag": 2148,
      "Ġkey": 2149,
      "Ġpred": 2150,
      "//": 2151,
      "Ġcop": 2152,
      "Ġdone": 2153,
      "epend": 2154,
      "ĠEnglish": 2155,
      ".)": 2156,
      "Ġaddress": 2157,
      "ournal": 2158,
      "Ġhold": 2159,
      "ried": 2160,
      "Ġengine": 2161,
      "like": 2162,
      "Ġess": 2163,
      "Ġliving": 2164,
      "gest": 2165,
      "Ġwide": 2166,
      "org": 2167,
      "vere": 2168,
      "Ġenvironmental": 2169,
      "Ġonce": 2170,
      "Ġconcer": 2171,
      "Ġconsider": 2172,
      "olic": 2173,
      "Ġevent": 2174,
      "ĠX": 2175,
      "Ġsent": 2176,
      "Ġdest": 2177,
      "ĠMar": 2178,
      "Ġaccording": 2179,
      "Ġglobal": 2180,
      "aut": 2181,
      "mb": 2182,
      "roll": 2183,
      "Ġ|": 2184,
      "atures": 2185,
      "Ġmass": 2186,
      "Ġeither": 2187,
      "Ġproducts": 2188,
      "aring": 2189,
      "ĠWith": 2190,
      "ibr": 2191,
      "gress": 2192,
      "Ġbelow": 2193,
      "rict": 2194,
      "Ġ2012": 2195,
      "Ã©": 2196,
      "Ġcreated": 2197,
      "icro": 2198,
      "amin": 2199,
      "ications": 2200,
      "ma": 2201,
      "Ġcame": 2202,
      "Ġreason": 2203,
      "apan": 2204,
      "Ġcomplex": 2205,
      "ER": 2206,
      "ints": 2207,
      "Ġinit": 2208,
      "verage": 2209,
      "ĠBy": 2210,
      "Ġpressure": 2211,
      "Ġsens": 2212,
      "estern": 2213,
      "Ġrecent": 2214,
      "Ġmodel": 2215,
      "port": 2216,
      "abit": 2217,
      "Ġupon": 2218,
      "Al": 2219,
      "oes": 2220,
      "Ġcy": 2221,
      "ĠII": 2222,
      "Ġtext": 2223,
      "Ġthought": 2224,
      "esc": 2225,
      "oll": 2226,
      "Ġansw": 2227,
      "hib": 2228,
      "reme": 2229,
      "itary": 2230,
      "Ġtoward": 2231,
      "ification": 2232,
      "Ġexperience": 2233,
      "Ġarticle": 2234,
      "Ġsize": 2235,
      "Ġpaper": 2236,
      "15": 2237,
      "Ġincreased": 2238,
      "onst": 2239,
      "Ġrecogn": 2240,
      "Ġrole": 2241,
      "Ġtypes": 2242,
      "Ġrequired": 2243,
      "13": 2244,
      "://": 2245,
      "fer": 2246,
      "Ġla": 2247,
      "Ġpay": 2248,
      "Ġconsidered": 2249,
      "Ġprovides": 2250,
      "Ġhistor": 2251,
      "Ġeconomic": 2252,
      "lying": 2253,
      "ĠAb": 2254,
      "ĠAss": 2255,
      "ronic": 2256,
      "Ġentire": 2257,
      "order": 2258,
      "Ġsam": 2259,
      "ened": 2260,
      "Ġtook": 2261,
      "utes": 2262,
      "Ġemploy": 2263,
      "itted": 2264,
      "Ġstat": 2265,
      "Ġfrequ": 2266,
      "How": 2267,
      "Ġhouse": 2268,
      "Ġbegan": 2269,
      "Ġdetail": 2270,
      "ights": 2271,
      "lor": 2272,
      "Ġcle": 2273,
      "Ġgas": 2274,
      "ables": 2275,
      "cient": 2276,
      "che": 2277,
      "Ġcut": 2278,
      "Ġ100": 2279,
      "Ġabs": 2280,
      "illed": 2281,
      "Ġbig": 2282,
      "Ġmeet": 2283,
      "alt": 2284,
      "Ġrelated": 2285,
      "ober": 2286,
      "Ġmodern": 2287,
      "Ġreally": 2288,
      "ateg": 2289,
      "Ġactivities": 2290,
      "ites": 2291,
      "Ġbill": 2292,
      "ume": 2293,
      "ivity": 2294,
      "Ġpotential": 2295,
      "Ġimprove": 2296,
      "chie": 2297,
      "aged": 2298,
      "Ġtherap": 2299,
      "Ġdig": 2300,
      "Ġchall": 2301,
      "17": 2302,
      "now": 2303,
      "Ġsepar": 2304,
      "abet": 2305,
      "augh": 2306,
      "Ġquestions": 2307,
      "Ch": 2308,
      "ront": 2309,
      "Ġtemperature": 2310,
      "Ġnormal": 2311,
      "Ġneeded": 2312,
      "chan": 2313,
      "Ġ13": 2314,
      "Ġalmost": 2315,
      "Ġintrodu": 2316,
      "iple": 2317,
      "Ġaccount": 2318,
      "Ġflu": 2319,
      "Ġfamil": 2320,
      "urs": 2321,
      "rought": 2322,
      "Ġvers": 2323,
      "urity": 2324,
      "Ġweek": 2325,
      "Ġsymptoms": 2326,
      "pect": 2327,
      "Ġtell": 2328,
      "Ġast": 2329,
      "Ġmakes": 2330,
      "uck": 2331,
      "Ġactually": 2332,
      "rect": 2333,
      "ĠPres": 2334,
      "Ġmaterials": 2335,
      "ĠResearch": 2336,
      "Ġtot": 2337,
      "Ġpage": 2338,
      "Ġself": 2339,
      "ĠJapan": 2340,
      "Ġsoft": 2341,
      "Ġbirth": 2342,
      "oura": 2343,
      "Ġinteract": 2344,
      "go": 2345,
      "Ġ196": 2346,
      "aching": 2347,
      "Ġissues": 2348,
      "ĠCenter": 2349,
      "nam": 2350,
      "pid": 2351,
      "Ġdeb": 2352,
      "Ġparts": 2353,
      "Ġprograms": 2354,
      "reg": 2355,
      "iment": 2356,
      "Ġrelative": 2357,
      "medi": 2358,
      "Ġstandard": 2359,
      "ĠCanad": 2360,
      "iddle": 2361,
      "Ġconcept": 2362,
      "ene": 2363,
      "Ġarg": 2364,
      "Ġmind": 2365,
      "ney": 2366,
      "Ġreduce": 2367,
      "Ġmeasure": 2368,
      "Ġsqu": 2369,
      "Ġsound": 2370,
      "Ġ2011": 2371,
      "To": 2372,
      "ched": 2373,
      "Ġsix": 2374,
      "Ġadult": 2375,
      "Ġsubst": 2376,
      "Ġobserv": 2377,
      "ming": 2378,
      "Ġver": 2379,
      "Ġstory": 2380,
      "oses": 2381,
      "Ġarch": 2382,
      "Ġ50": 2383,
      "ĠBl": 2384,
      "Ġproduce": 2385,
      "Ġsurv": 2386,
      "Ġcannot": 2387,
      "Ġwild": 2388,
      "ĠShe": 2389,
      "Ġce": 2390,
      "Ġdesigned": 2391,
      "Ġparents": 2392,
      "Ġconduct": 2393,
      "Ġclaim": 2394,
      "Ġbusiness": 2395,
      "Ġyet": 2396,
      "Ġprovided": 2397,
      "Ġshows": 2398,
      "erve": 2399,
      "Ġlink": 2400,
      "Ġbuilt": 2401,
      "lt": 2402,
      "Ġdom": 2403,
      "Ġvalue": 2404,
      "Ġ/": 2405,
      "Ġcr": 2406,
      "acks": 2407,
      "Ġrelig": 2408,
      "stitution": 2409,
      "Ġdiagn": 2410,
      "Ġwhole": 2411,
      "Ġsure": 2412,
      "Ġthroughout": 2413,
      "ush": 2414,
      "ensive": 2415,
      "uation": 2416,
      "Ġcit": 2417,
      "Ġcamp": 2418,
      "Ġport": 2419,
      "Ġgreen": 2420,
      "fact": 2421,
      "ĠSec": 2422,
      "Ġ25": 2423,
      "Ġcondition": 2424,
      "Ġbuilding": 2425,
      "When": 2426,
      "Ġinj": 2427,
      "minist": 2428,
      "Ġwin": 2429,
      "ĠInstitute": 2430,
      "):": 2431,
      "lex": 2432,
      "Ġsuper": 2433,
      "Ġpattern": 2434,
      "put": 2435,
      "14": 2436,
      "Ġnature": 2437,
      "ĠStud": 2438,
      "Ġquick": 2439,
      "Ġgreater": 2440,
      "Ġmor": 2441,
      "vey": 2442,
      "Ġge": 2443,
      "Ġvi": 2444,
      "rench": 2445,
      "Ġassociated": 2446,
      "Ġaction": 2447,
      "Ġdiet": 2448,
      "ask": 2449,
      "Ġquality": 2450,
      "Ġidea": 2451,
      "Ġsense": 2452,
      "umb": 2453,
      "Ġmonths": 2454,
      "ips": 2455,
      "'re": 2456,
      "Ġemer": 2457,
      "attle": 2458,
      "Ġpriv": 2459,
      "ply": 2460,
      "Ġmoney": 2461,
      "empt": 2462,
      "ĠGu": 2463,
      "Ġcolor": 2464,
      "Ġforce": 2465,
      "ival": 2466,
      "But": 2467,
      "Ġlog": 2468,
      "ety": 2469,
      "oon": 2470,
      "Ġbar": 2471,
      "Ġled": 2472,
      "gram": 2473,
      "bo": 2474,
      "Ġmechan": 2475,
      "Ġopportun": 2476,
      "ĠScience": 2477,
      "Ġever": 2478,
      "Ġcontact": 2479,
      "Ġstudent": 2480,
      "Ġrev": 2481,
      "adem": 2482,
      "rown": 2483,
      "Ġtradition": 2484,
      "Ġremain": 2485,
      "iction": 2486,
      "Ġrelationship": 2487,
      "Ġdiv": 2488,
      "ĠAm": 2489,
      "ections": 2490,
      "pro": 2491,
      "aters": 2492,
      "ĠAfter": 2493,
      "rial": 2494,
      "Ġcoll": 2495,
      "Ġissue": 2496,
      "Ġur": 2497,
      "erous": 2498,
      "Ġrecomm": 2499,
      "ister": 2500,
      "raft": 2501,
      "aging": 2502,
      "Ġachie": 2503,
      "atter": 2504,
      "ops": 2505,
      "Ġdeg": 2506,
      "Ġability": 2507,
      "apt": 2508,
      "Ġmanagement": 2509,
      "aff": 2510,
      "Ġthreat": 2511,
      "eter": 2512,
      "Ġnecessary": 2513,
      "igure": 2514,
      "Ġearth": 2515,
      "Ġnetwork": 2516,
      "ĠJu": 2517,
      "Ġlab": 2518,
      "ĠDav": 2519,
      "ccording": 2520,
      "Ġcaused": 2521,
      "ĠDepartment": 2522,
      "ze": 2523,
      "Ġexerc": 2524,
      "Ġprevious": 2525,
      "Ġtraining": 2526,
      "Ġeffic": 2527,
      "Ġunderstanding": 2528,
      "atives": 2529,
      "ript": 2530,
      "Ġrate": 2531,
      "ius": 2532,
      "Ġpath": 2533,
      "ores": 2534,
      "izing": 2535,
      "Ġcarbon": 2536,
      "Ġsett": 2537,
      "Ġfri": 2538,
      "ĠCons": 2539,
      "Ġlonger": 2540,
      "ashing": 2541,
      "ĠMan": 2542,
      "Ġweight": 2543,
      "Ġregard": 2544,
      "ĠCont": 2545,
      "\".": 2546,
      "Ġ2010": 2547,
      "Ġavoid": 2548,
      "Ġens": 2549,
      "lands": 2550,
      "Ġsimple": 2551,
      "lies": 2552,
      "Ġlot": 2553,
      "sequ": 2554,
      "Ġtown": 2555,
      "ternal": 2556,
      "based": 2557,
      "ror": 2558,
      "Ġsources": 2559,
      "Ġheav": 2560,
      "Ġdeveloping": 2561,
      "Ġinteg": 2562,
      "ĠBritish": 2563,
      "ached": 2564,
      "itude": 2565,
      "You": 2566,
      "ising": 2567,
      "Ġbur": 2568,
      "icles": 2569,
      "ext": 2570,
      "Ġbehavior": 2571,
      "ĠTr": 2572,
      "ĠComp": 2573,
      "istance": 2574,
      "Ġvide": 2575,
      "Ġcontent": 2576,
      "ief": 2577,
      "Ġorigin": 2578,
      "Ġut": 2579,
      "ening": 2580,
      "amed": 2581,
      "ĠMin": 2582,
      "Ġcomes": 2583,
      "ĠHist": 2584,
      "inary": 2585,
      "inks": 2586,
      "Ġhours": 2587,
      "osure": 2588,
      "Ġvisit": 2589,
      "ES": 2590,
      "imately": 2591,
      "het": 2592,
      "arily": 2593,
      "Ġreported": 2594,
      "Ġdoctor": 2595,
      "Ġx": 2596,
      "eds": 2597,
      "ĠBo": 2598,
      "Ġsuff": 2599,
      "acc": 2600,
      "fully": 2601,
      "olec": 2602,
      "eding": 2603,
      "asc": 2604,
      "ĠNo": 2605,
      "Ġelectric": 2606,
      "Ġterms": 2607,
      "Ġshown": 2608,
      "Ġ194": 2609,
      "uary": 2610,
      "Ġtaking": 2611,
      "Ġprobably": 2612,
      "ĠCalif": 2613,
      "Ġpict": 2614,
      "Ġaccept": 2615,
      "Ġwritten": 2616,
      "Ġpractice": 2617,
      "Ġmovement": 2618,
      "aries": 2619,
      "Ġuses": 2620,
      "Ġfactors": 2621,
      "Ġtotal": 2622,
      "Ġincreasing": 2623,
      "Ġonline": 2624,
      "Ġnumbers": 2625,
      "ows": 2626,
      "Ġproduced": 2627,
      "ging": 2628,
      "ĠCo": 2629,
      "Ġdeep": 2630,
      "Ġschools": 2631,
      "Ġoriginal": 2632,
      "ĠAustral": 2633,
      "hy": 2634,
      "Ġhttp": 2635,
      "Ġspe": 2636,
      "hood": 2637,
      "Ġheat": 2638,
      "Ġfat": 2639,
      "ĠSchool": 2640,
      "usion": 2641,
      "Ġstructure": 2642,
      "Ġtrue": 2643,
      "Ġdocument": 2644,
      "utions": 2645,
      "ades": 2646,
      "Ġeffective": 2647,
      "nces": 2648,
      "Ġox": 2649,
      "ese": 2650,
      "Ġfarm": 2651,
      "cean": 2652,
      "Ġoutside": 2653,
      "ropri": 2654,
      "Ġscientific": 2655,
      "Ġago": 2656,
      "Ġstop": 2657,
      "ricult": 2658,
      "Ġanalysis": 2659,
      "Ġforms": 2660,
      "Ġpoll": 2661,
      "PA": 2662,
      "cil": 2663,
      "Ġmount": 2664,
      "Ġthous": 2665,
      "Ġtravel": 2666,
      "Ġ2008": 2667,
      "vention": 2668,
      "ornia": 2669,
      "Ġservice": 2670,
      "Ġfire": 2671,
      "ĠJan": 2672,
      "ai": 2673,
      "Ġaverage": 2674,
      "lease": 2675,
      "Ġste": 2676,
      "Ġindepend": 2677,
      "Ġlate": 2678,
      "Ġpopular": 2679,
      "Ġsometimes": 2680,
      "Ġbreak": 2681,
      "Ġbasic": 2682,
      "Ġjo": 2683,
      "Ġincludes": 2684,
      "Ġnation": 2685,
      "Ġconcent": 2686,
      "Ġposition": 2687,
      "Ġpsych": 2688,
      "Ġspread": 2689,
      "ecause": 2690,
      "Ġ2007": 2691,
      "Ġinvolved": 2692,
      "haps": 2693,
      "Ġfile": 2694,
      "ctions": 2695,
      "Ġsearch": 2696,
      "mon": 2697,
      "Ġfeet": 2698,
      "Ġremov": 2699,
      "Ġrefer": 2700,
      "eration": 2701,
      "Ġface": 2702,
      "cell": 2703,
      "Ġimage": 2704,
      "mosp": 2705,
      "ĠPe": 2706,
      "duc": 2707,
      "ressed": 2708,
      "Ġmess": 2709,
      "ĠChina": 2710,
      "Ġsimply": 2711,
      "ĠApp": 2712,
      "osition": 2713,
      "Ġvit": 2714,
      "Ġjob": 2715,
      "Ġapproach": 2716,
      "Ġindustry": 2717,
      "dom": 2718,
      "overy": 2719,
      "ĠFrench": 2720,
      "www": 2721,
      "coh": 2722,
      "where": 2723,
      "ĠCount": 2724,
      "unch": 2725,
      "ĠKing": 2726,
      "16": 2727,
      "uk": 2728,
      "ĠÂ": 2729,
      "Ġec": 2730,
      "aches": 2731,
      "ĠRiver": 2732,
      "Ġ2009": 2733,
      "Ġpersonal": 2734,
      "On": 2735,
      "ĠPer": 2736,
      "ĠGra": 2737,
      "undred": 2738,
      "Ġcauses": 2739,
      "pril": 2740,
      "uls": 2741,
      "ĠFran": 2742,
      "aving": 2743,
      "Ġserious": 2744,
      "Ġpurp": 2745,
      "Ġmarket": 2746,
      "Ġsust": 2747,
      "ners": 2748,
      "Ġconc": 2749,
      "Ġtar": 2750,
      "Ġtiss": 2751,
      "Ġfederal": 2752,
      "Ġmatter": 2753,
      "Ġslow": 2754,
      "Ġdri": 2755,
      "Ġnut": 2756,
      "ĠMore": 2757,
      "__": 2758,
      "Ġinternational": 2759,
      "onse": 2760,
      "Ġtests": 2761,
      "ength": 2762,
      "Ġsat": 2763,
      "Ġperm": 2764,
      "Ġvari": 2765,
      "Ġparticularly": 2766,
      "ON": 2767,
      "Ġcoun": 2768,
      "Ġcivil": 2769,
      "Ġsoil": 2770,
      "AT": 2771,
      "Ġir": 2772,
      "Ġfem": 2773,
      "Ġhabit": 2774,
      "âĢ¦": 2775,
      "Ġvariety": 2776,
      "IN": 2777,
      "ster": 2778,
      "Ġanimal": 2779,
      "ĠAug": 2780,
      "igation": 2781,
      "Ġcapt": 2782,
      "rast": 2783,
      "Ġtax": 2784,
      "Ġmedia": 2785,
      "Ġwriting": 2786,
      "Ġcat": 2787,
      "thern": 2788,
      "orders": 2789,
      "Ġassess": 2790,
      "ĠCalifornia": 2791,
      "bre": 2792,
      "light": 2793,
      "leep": 2794,
      "reng": 2795,
      "Ġ40": 2796,
      "lim": 2797,
      "IS": 2798,
      "Ġbring": 2799,
      "Ġgene": 2800,
      "Ġgenetic": 2801,
      "ashington": 2802,
      "Ġlabor": 2803,
      "Ġnuc": 2804,
      "Ġmusic": 2805,
      "Ġmeaning": 2806,
      "Ġtheory": 2807,
      "Ġevents": 2808,
      "Ġcolon": 2809,
      "Ġattempt": 2810,
      "Ġadded": 2811,
      "ĠWhile": 2812,
      "Ġdemonst": 2813,
      "useum": 2814,
      "Ġindividuals": 2815,
      "Ġestablished": 2816,
      "itation": 2817,
      "ads": 2818,
      "ĠInternational": 2819,
      "Ġgenerally": 2820,
      "Ġextreme": 2821,
      "Ġmethods": 2822,
      "ĠPresident": 2823,
      "Ġliter": 2824,
      "ama": 2825,
      "Ġskills": 2826,
      "Ġthing": 2827,
      "Ġhumans": 2828,
      "Ġcontinue": 2829,
      "Ġpatient": 2830,
      "Ġexperien": 2831,
      "Ġbacter": 2832,
      "Ġsea": 2833,
      "Ġcapital": 2834,
      "Ġaffect": 2835,
      "ĠMarch": 2836,
      "uman": 2837,
      "ĠInf": 2838,
      "issions": 2839,
      "Ġpoor": 2840,
      "Ġservices": 2841,
      "ĠAnt": 2842,
      "Ġwhose": 2843,
      "estic": 2844,
      "Ġnearly": 2845,
      "aling": 2846,
      "Ġmother": 2847,
      "Ġstri": 2848,
      "ĠPre": 2849,
      "Ġcompl": 2850,
      "ĠQu": 2851,
      "ps": 2852,
      "Ġtend": 2853,
      "Ġwarm": 2854,
      "istics": 2855,
      "gency": 2856,
      "Ġdetermine": 2857,
      "Ġpolicy": 2858,
      "ID": 2859,
      "ancy": 2860,
      "ribution": 2861,
      "gery": 2862,
      "Ġmilitary": 2863,
      "anced": 2864,
      "Ġthus": 2865,
      "Ġaltern": 2866,
      "Ġtalk": 2867,
      "Ġexc": 2868,
      "Ġwebs": 2869,
      "inical": 2870,
      "Ġsus": 2871,
      "ĠHar": 2872,
      "Ġcheck": 2873,
      ");": 2874,
      "Ġsou": 2875,
      "ĠSu": 2876,
      "Ġcompan": 2877,
      "ĠIndian": 2878,
      "Ġcitiz": 2879,
      "AR": 2880,
      "Ġbab": 2881,
      "ift": 2882,
      "aily": 2883,
      "Ġidentify": 2884,
      "Ġtur": 2885,
      "Ġlives": 2886,
      "ulate": 2887,
      "Ġheld": 2888,
      "Ġforest": 2889,
      "Ġadditional": 2890,
      "Ġsafe": 2891,
      "bor": 2892,
      "ira": 2893,
      "Ġtox": 2894,
      "ĠPar": 2895,
      "Ġattention": 2896,
      "Ġinside": 2897,
      "cies": 2898,
      "Ġinstead": 2899,
      "Ġclean": 2900,
      "hold": 2901,
      "Ġstra": 2902,
      "ĠWill": 2903,
      "Ġseries": 2904,
      "ev": 2905,
      "Ġmemory": 2906,
      "Ġbelieve": 2907,
      "Ġdamage": 2908,
      "Ġmach": 2909,
      "Ġdou": 2910,
      "see": 2911,
      "ĠWest": 2912,
      "Ġestim": 2913,
      "ĠAg": 2914,
      "ulated": 2915,
      "erson": 2916,
      "ĠRuss": 2917,
      "Ġmiles": 2918,
      "OR": 2919,
      "oly": 2920,
      "Ġnorth": 2921,
      "Ġwall": 2922,
      "Ġhundred": 2923,
      "hern": 2924,
      "ternet": 2925,
      "Ġetc": 2926,
      "Ġpack": 2927,
      "omb": 2928,
      "Ġactive": 2929,
      "Ġemb": 2930,
      "term": 2931,
      "Ġnews": 2932,
      "Ġap": 2933,
      "Ġdiseases": 2934,
      "Ġofficial": 2935,
      "cohol": 2936,
      "ns": 2937,
      "Ġlost": 2938,
      "eth": 2939,
      "ĠMe": 2940,
      "elling": 2941,
      "ided": 2942,
      "uries": 2943,
      "AN": 2944,
      "lection": 2945,
      "Ġcompared": 2946,
      "Ġpositive": 2947,
      "Ġapplication": 2948,
      "IT": 2949,
      "isms": 2950,
      "imum": 2951,
      "ĠMany": 2952,
      "Ġcommand": 2953,
      "Ġreflect": 2954,
      "Ġcommunities": 2955,
      "Ġthird": 2956,
      "ille": 2957,
      "Ġreview": 2958,
      "Ġstreng": 2959,
      "Ġimmedi": 2960,
      "ĠJuly": 2961,
      "life": 2962,
      "Ġsection": 2963,
      "ĠCor": 2964,
      "Ġalthough": 2965,
      "ĠChild": 2966,
      "Ġdraw": 2967,
      "Ġprotein": 2968,
      "sect": 2969,
      "ĠWashington": 2970,
      "Ġviol": 2971,
      "ĠAc": 2972,
      "ĠPr": 2973,
      "Ġdirectly": 2974,
      "Ġculture": 2975,
      "rates": 2976,
      "Ġconsist": 2977,
      "Ġbooks": 2978,
      "Ġprimary": 2979,
      "mat": 2980,
      "ises": 2981,
      "ĠIm": 2982,
      "Ġincluded": 2983,
      "Ġregular": 2984,
      "Ġice": 2985,
      "Ġdog": 2986,
      "gar": 2987,
      "ufact": 2988,
      "Ġsouth": 2989,
      "ellow": 2990,
      "Ġsolar": 2991,
      "ground": 2992,
      "na": 2993,
      "Ġcra": 2994,
      "Ġfa": 2995,
      "Ġtherefore": 2996,
      "Ġbehind": 2997,
      "ĠPart": 2998,
      "ĠEd": 2999,
      "Ġdisp": 3000,
      "Ġsoftware": 3001,
      "Ġtakes": 3002,
      "ilos": 3003,
      "ĠCong": 3004,
      "Ġcompany": 3005,
      "Ġprep": 3006,
      "Ġperformance": 3007,
      "25": 3008,
      "ino": 3009,
      "Ġcool": 3010,
      "Ġbul": 3011,
      "ying": 3012,
      "Ġsevere": 3013,
      "Ġimplement": 3014,
      "Ġsupply": 3015,
      "iles": 3016,
      "ĠMost": 3017,
      "Ġcompet": 3018,
      "Ġcover": 3019,
      "Ġhealthy": 3020,
      "Ġrespect": 3021,
      "ĠApril": 3022,
      "ulf": 3023,
      "Ġattack": 3024,
      "Ġdoesn": 3025,
      "He": 3026,
      "irit": 3027,
      "ĠJune": 3028,
      "Ġlarger": 3029,
      "Ġmolec": 3030,
      "Ġselect": 3031,
      "Ġgrowing": 3032,
      "Ġlooking": 3033,
      "Ġdrugs": 3034,
      "oles": 3035,
      "irm": 3036,
      "Ġsafety": 3037,
      "Ġhyd": 3038,
      "orthern": 3039,
      "ĠEuropean": 3040,
      "Ġbeginning": 3041,
      "Ġnight": 3042,
      "Ġdefin": 3043,
      "Ġplanet": 3044,
      "lied": 3045,
      "wise": 3046,
      "yle": 3047,
      "Ġsil": 3048,
      "ĠPark": 3049,
      "Ġatmosp": 3050,
      "Ġquite": 3051,
      "Ġdrink": 3052,
      "iat": 3053,
      "isl": 3054,
      "icated": 3055,
      "ription": 3056,
      "Ġspeed": 3057,
      "Ġjud": 3058,
      "Ġworkers": 3059,
      "Ġfuel": 3060,
      "Ġrout": 3061,
      "Ġpregn": 3062,
      "Ġsociety": 3063,
      "Ġwrite": 3064,
      "Ġmid": 3065,
      "Ġgenes": 3066,
      "Ġacid": 3067,
      "Ġdecl": 3068,
      "Ġbirds": 3069,
      "uge": 3070,
      "Ġeat": 3071,
      "Ġencoura": 3072,
      "Ġbr": 3073,
      "ider": 3074,
      "Ġbenefits": 3075,
      "Ġdescribed": 3076,
      "Ġnegative": 3077,
      "pper": 3078,
      "ĠEduc": 3079,
      "ĠNA": 3080,
      "Ġshare": 3081,
      "Ġdoing": 3082,
      "ography": 3083,
      "cember": 3084,
      "uth": 3085,
      "ĠMus": 3086,
      "Ġprec": 3087,
      "Ġinstit": 3088,
      "Ġtarget": 3089,
      "edia": 3090,
      "Ġdark": 3091,
      "ĠSm": 3092,
      "Ġ24": 3093,
      "Ġkids": 3094,
      "Ġcentral": 3095,
      "rogen": 3096,
      "Ġcontains": 3097,
      "Ġtransm": 3098,
      "Ġcourt": 3099,
      "abetes": 3100,
      "Ġborn": 3101,
      "ica": 3102,
      "Ġdead": 3103,
      "ĠOct": 3104,
      "ĠSept": 3105,
      "Ġaud": 3106,
      "Ġfront": 3107,
      "aces": 3108,
      "ĠChar": 3109,
      "Ġsites": 3110,
      "ĠInt": 3111,
      "Ġcoast": 3112,
      "Ġmaintain": 3113,
      "Ġcorrect": 3114,
      "ospital": 3115,
      "isions": 3116,
      "cop": 3117,
      "Ġlargest": 3118,
      "iny": 3119,
      "Ġbra": 3120,
      "Ġfav": 3121,
      "Ġappropri": 3122,
      "Ġgetting": 3123,
      "Ġeye": 3124,
      "Ġcard": 3125,
      "Ġproced": 3126,
      "Ġcenter": 3127,
      "Ġleaders": 3128,
      "Ġfamilies": 3129,
      "oor": 3130,
      "Ġbott": 3131,
      "Ġhor": 3132,
      "ĠAlthough": 3133,
      "Ġbroad": 3134,
      "Ġseems": 3135,
      "Ġep": 3136,
      "Ġresponse": 3137,
      "ĠAugust": 3138,
      "22": 3139,
      "yond": 3140,
      "Ġbrought": 3141,
      "Ġgame": 3142,
      "Ġgoal": 3143,
      "Ġlocated": 3144,
      "Ġeasy": 3145,
      "ĠGovern": 3146,
      "Ġreve": 3147,
      "Ġlove": 3148,
      "Ġimages": 3149,
      "ension": 3150,
      "ounds": 3151,
      "Ġminutes": 3152,
      "elt": 3153,
      "Ġstarted": 3154,
      "Ġtree": 3155,
      "Ġdang": 3156,
      "room": 3157,
      "Ġhyp": 3158,
      "Ġeight": 3159,
      "amb": 3160,
      "Ġmonitor": 3161,
      "ĠIndia": 3162,
      "Ġmicro": 3163,
      "set": 3164,
      "Ġideas": 3165,
      "ana": 3166,
      "ĠBar": 3167,
      "ĠHer": 3168,
      "ologies": 3169,
      "Ġsustain": 3170,
      "AS": 3171,
      "pe": 3172,
      "ĠMet": 3173,
      "Ġlaws": 3174,
      "ĠDavid": 3175,
      "Ġwent": 3176,
      "Ġwood": 3177,
      "Ġlack": 3178,
      "Ġforces": 3179,
      "ĠDo": 3180,
      "Ġrecently": 3181,
      "ĠJewish": 3182,
      "Ġones": 3183,
      "ĠMc": 3184,
      "Ġord": 3185,
      "ĠAssoci": 3186,
      "Ġquickly": 3187,
      "Ġvideo": 3188,
      "IC": 3189,
      "One": 3190,
      "water": 3191,
      "odies": 3192,
      "Ġwaste": 3193,
      "Ġmanufact": 3194,
      "Ġtransport": 3195,
      "enth": 3196,
      "Ġstress": 3197,
      "osing": 3198,
      "Ġinfection": 3199,
      "Ġcarry": 3200,
      "dd": 3201,
      "Ġkill": 3202,
      "ologist": 3203,
      "itting": 3204,
      "Ġlimited": 3205,
      "Ġbase": 3206,
      "Ġgot": 3207,
      "ĠServ": 3208,
      "Ġseason": 3209,
      "Ġadop": 3210,
      "Ġextra": 3211,
      "Ġsummer": 3212,
      "Ġteachers": 3213,
      "Ġcust": 3214,
      "Ġ=": 3215,
      "inct": 3216,
      "Ġfoot": 3217,
      "rael": 3218,
      "Ġalt": 3219,
      "ĠRec": 3220,
      "ĠGree": 3221,
      "Ġ186": 3222,
      "ĠAmericans": 3223,
      "Ġmagn": 3224,
      "IV": 3225,
      "leb": 3226,
      "Ġhost": 3227,
      "Ġcommer": 3228,
      "astic": 3229,
      "Ġbillion": 3230,
      "ĠCanada": 3231,
      "Ġweb": 3232,
      "Ġunc": 3233,
      "Ġtrade": 3234,
      "Ġreading": 3235,
      "ĠAfrican": 3236,
      "ĠJanuary": 3237,
      "eks": 3238,
      "Ġ,": 3239,
      "Ġcross": 3240,
      "Ġfru": 3241,
      "Ġefforts": 3242,
      "Ġhimself": 3243,
      "ĠGerman": 3244,
      "At": 3245,
      "erg": 3246,
      "Ġbal": 3247,
      "ĠTra": 3248,
      "ĠDNA": 3249,
      "21": 3250,
      "cks": 3251,
      "Ġdry": 3252,
      "Ġuser": 3253,
      "Ġeasily": 3254,
      "ibrary": 3255,
      "craft": 3256,
      "Ġsleep": 3257,
      "Ġbit": 3258,
      "ĠChurch": 3259,
      "Ġdifference": 3260,
      "Ġfinan": 3261,
      "rs": 3262,
      "yl": 3263,
      "Ġprint": 3264,
      "Ġleading": 3265,
      "Ġanswer": 3266,
      "80": 3267,
      "Ġformer": 3268,
      "Ġprogress": 3269,
      "Ġvot": 3270,
      "Ġappe": 3271,
      "Ġsoon": 3272,
      "Ġinterp": 3273,
      "ida": 3274,
      "ios": 3275,
      "rance": 3276,
      "Ġsal": 3277,
      "ields": 3278,
      "aly": 3279,
      "ĠGl": 3280,
      "Ġexposure": 3281,
      "Ġdecre": 3282,
      "Ġdiscovered": 3283,
      "Ġcompanies": 3284,
      "Ġmom": 3285,
      "Ġlif": 3286,
      "ĠMon": 3287,
      "Ġimpl": 3288,
      "Ġpoints": 3289,
      "Ġrequires": 3290,
      "Ġhands": 3291,
      "iques": 3292,
      "Ġoccurs": 3293,
      "Ġtools": 3294,
      "Ġcode": 3295,
      "Ġinn": 3296,
      "arr": 3297,
      "Ġdied": 3298,
      "Ġlines": 3299,
      "Ġadminist": 3300,
      "Ġeval": 3301,
      "ĠVir": 3302,
      "\",": 3303,
      "Ġinfluence": 3304,
      "And": 3305,
      "lier": 3306,
      "oming": 3307,
      "ĠOther": 3308,
      "ously": 3309,
      "Ġplaces": 3310,
      "Ġder": 3311,
      "ĠSociety": 3312,
      "ties": 3313,
      "Ġult": 3314,
      "Ġprotection": 3315,
      "Ġdevice": 3316,
      "ĠTechn": 3317,
      "Pro": 3318,
      "Ġpan": 3319,
      "ĠCity": 3320,
      "ĠUs": 3321,
      "Ġdispl": 3322,
      "ĠDevelop": 3323,
      "Ġobjects": 3324,
      "ĠChristian": 3325,
      "Ġreceived": 3326,
      "wo": 3327,
      "istry": 3328,
      "used": 3329,
      "Ġsequ": 3330,
      "Ġrare": 3331,
      "ype": 3332,
      "Ġgradu": 3333,
      "Ġancient": 3334,
      "Ġexcept": 3335,
      "ems": 3336,
      "nown": 3337,
      "itch": 3338,
      "Ġvirus": 3339,
      "Ġchalleng": 3340,
      "40": 3341,
      "aul": 3342,
      "Ġaim": 3343,
      "alled": 3344,
      "Ġnamed": 3345,
      "ĠCour": 3346,
      "Ġ21": 3347,
      "Ġprior": 3348,
      "Ġmultiple": 3349,
      "Ġwebsite": 3350,
      "ĠSur": 3351,
      "Ġunique": 3352,
      "Ġprivate": 3353,
      "ĠSeptember": 3354,
      "Ġpen": 3355,
      "Ġtold": 3356,
      "ĠCD": 3357,
      "ender": 3358,
      "Ġcompon": 3359,
      "Ġrapid": 3360,
      "ovember": 3361,
      "asons": 3362,
      "Ġgard": 3363,
      "Ġrule": 3364,
      "ĠInc": 3365,
      "Ġsomeone": 3366,
      "Ġuseful": 3367,
      "Ġ2000": 3368,
      "ĠEnvironment": 3369,
      "Ġmut": 3370,
      "Ġdaily": 3371,
      "ĠNe": 3372,
      "Ġaccur": 3373,
      "By": 3374,
      "iology": 3375,
      "Ġfight": 3376,
      "Ġlength": 3377,
      "ĠEm": 3378,
      "ĠFeb": 3379,
      "Ġlocation": 3380,
      "Ġallows": 3381,
      "ĠDecember": 3382,
      "Ġcurrently": 3383,
      "Ġriver": 3384,
      "oke": 3385,
      "wide": 3386,
      "Ġvict": 3387,
      "aint": 3388,
      "ĠEl": 3389,
      "Ġdecision": 3390,
      "ED": 3391,
      "mar": 3392,
      "ils": 3393,
      "Ġweeks": 3394,
      "Ġhelps": 3395,
      "ding": 3396,
      "vest": 3397,
      "Ġsold": 3398,
      "âĢ¢": 3399,
      "Ġrock": 3400,
      "Ġdemand": 3401,
      "ĠSystem": 3402,
      "ico": 3403,
      "resh": 3404,
      "ĠEast": 3405,
      "Ġevolution": 3406,
      "Ġoffer": 3407,
      "Ġtum": 3408,
      "Ġcou": 3409,
      "enty": 3410,
      "Ġegg": 3411,
      "amer": 3412,
      "hens": 3413,
      "Ġelectr": 3414,
      "Ġcitizens": 3415,
      "AL": 3416,
      "bit": 3417,
      "itte": 3418,
      "Ġmission": 3419,
      "Ġadults": 3420,
      "nes": 3421,
      "year": 3422,
      "Ġcorn": 3423,
      "ĠBra": 3424,
      "Ġremains": 3425,
      "Ġ60": 3426,
      "199": 3427,
      "iverse": 3428,
      "Ġwaters": 3429,
      "arian": 3430,
      "Ġharm": 3431,
      "Ġsurround": 3432,
      "Ġpopulations": 3433,
      "ĠArt": 3434,
      "Ġtherapy": 3435,
      "hest": 3436,
      "itis": 3437,
      "Ġcontinued": 3438,
      "Ġveget": 3439,
      "Ġelse": 3440,
      "iers": 3441,
      "inate": 3442,
      "Ġbeg": 3443,
      "Ġvill": 3444,
      "ipment": 3445,
      "Ġcold": 3446,
      "Ġ2005": 3447,
      "Ġnuclear": 3448,
      "Ġwa": 3449,
      "icate": 3450,
      "irl": 3451,
      "Ġdepend": 3452,
      "iency": 3453,
      "Ġtissue": 3454,
      "lin": 3455,
      "Ġaware": 3456,
      "These": 3457,
      "Ġcosts": 3458,
      "ĠSocial": 3459,
      "Ġdate": 3460,
      "ĠIsrael": 3461,
      "Ġsexual": 3462,
      "24": 3463,
      "Ġten": 3464,
      "Ġban": 3465,
      "ĠSan": 3466,
      "ĠCur": 3467,
      "Ġ2006": 3468,
      "Ġestablish": 3469,
      "Ġcritical": 3470,
      "Ġasked": 3471,
      "Ġexercise": 3472,
      "ĠWater": 3473,
      "Ġcontribut": 3474,
      "izations": 3475,
      "ĠWeb": 3476,
      "Ġphysic": 3477,
      "Ġbasis": 3478,
      "Ġanti": 3479,
      "fficient": 3480,
      "So": 3481,
      "Ġwalk": 3482,
      "Ġsurgery": 3483,
      "gypt": 3484,
      "DA": 3485,
      "book": 3486,
      "Ġund": 3487,
      "Ġalcohol": 3488,
      "Ġsuccessful": 3489,
      "Ġdestro": 3490,
      "Ġspeak": 3491,
      "hel": 3492,
      "Ġsn": 3493,
      "Ġball": 3494,
      "Ġcoming": 3495,
      "ocr": 3496,
      "ĠUN": 3497,
      "Ġperhaps": 3498,
      "Ġfeed": 3499,
      "Ġpresident": 3500,
      "With": 3501,
      "new": 3502,
      "Ġdy": 3503,
      "ceed": 3504,
      "ĠReg": 3505,
      "Ġexpand": 3506,
      "Ġsmaller": 3507,
      "ĠAre": 3508,
      "Ġagricult": 3509,
      "Ġensure": 3510,
      "ygen": 3511,
      "Ġtrib": 3512,
      "pped": 3513,
      "ĠRoman": 3514,
      "ĠProgram": 3515,
      "ĠAfrica": 3516,
      "Ġtoxic": 3517,
      "ĠWilliam": 3518,
      "olar": 3519,
      "Ġgave": 3520,
      "rome": 3521,
      "ĠGreat": 3522,
      "ĠCounty": 3523,
      "EN": 3524,
      "head": 3525,
      "rote": 3526,
      "Ġeth": 3527,
      "Ġreach": 3528,
      "Ġstru": 3529,
      "ĠRed": 3530,
      "ĠYour": 3531,
      "Ġexpected": 3532,
      "ky": 3533,
      "ĠSch": 3534,
      "Ġcollection": 3535,
      "70": 3536,
      "Ġfather": 3537,
      "Ġbeyond": 3538,
      "Ġlegal": 3539,
      "ĠHistory": 3540,
      "ilosoph": 3541,
      "come": 3542,
      "Ġden": 3543,
      "lege": 3544,
      "Ġhar": 3545,
      "entially": 3546,
      "odes": 3547,
      "Ġexact": 3548,
      "ĠJes": 3549,
      "Ġdisorders": 3550,
      "Ġdevices": 3551,
      "ony": 3552,
      "Ġang": 3553,
      "ĠHouse": 3554,
      "Ġsaw": 3555,
      "cles": 3556,
      "Ġwoman": 3557,
      "Ġbad": 3558,
      "ĠMor": 3559,
      "Ġrates": 3560,
      "ĠGreen": 3561,
      "Ġshall": 3562,
      "apter": 3563,
      "ĠEngland": 3564,
      "Ġversion": 3565,
      "lam": 3566,
      "Ġi": 3567,
      "rees": 3568,
      "Ġresponsible": 3569,
      "ĠNASA": 3570,
      "aled": 3571,
      "Ġhot": 3572,
      "ĠSince": 3573,
      "ĠMich": 3574,
      "ĠDis": 3575,
      "lick": 3576,
      "Ġshowed": 3577,
      "Ġelements": 3578,
      "Ġtrees": 3579,
      "35": 3580,
      "ham": 3581,
      "Ġstream": 3582,
      "ĠLaw": 3583,
      "Ġcontroll": 3584,
      "Ġhighly": 3585,
      "Ġfoods": 3586,
      "26": 3587,
      "Ġmiss": 3588,
      "ĠMy": 3589,
      "ests": 3590,
      "Ġusers": 3591,
      "Ġmodels": 3592,
      "Ġessential": 3593,
      "ĠCongress": 3594,
      "inated": 3595,
      "erate": 3596,
      "ĠCoun": 3597,
      "ĠJournal": 3598,
      "ĠInter": 3599,
      "Ġ2004": 3600,
      "Ġveh": 3601,
      "Ġinvestig": 3602,
      "Ġcompletely": 3603,
      "load": 3604,
      "Ġcrop": 3605,
      "Ġmiddle": 3606,
      "Ġplaced": 3607,
      "Ġbacteria": 3608,
      "ĠFirst": 3609,
      "Ġassign": 3610,
      "Ġtechniques": 3611,
      "airs": 3612,
      "ĠCommun": 3613,
      "ĠMedicine": 3614,
      "Ġdiabetes": 3615,
      "Ġapplications": 3616,
      "ĠEducation": 3617,
      "ĠAssociation": 3618,
      "iar": 3619,
      "Ġwon": 3620,
      "imal": 3621,
      "ought": 3622,
      "Ġaffected": 3623,
      "Ġbenefit": 3624,
      "Ġcopy": 3625,
      "Ġtraditional": 3626,
      "omy": 3627,
      "Ġstar": 3628,
      "Ġcapac": 3629,
      "Ġceleb": 3630,
      "Ġachieve": 3631,
      "oud": 3632,
      "ĠChe": 3633,
      "ĠEgypt": 3634,
      "Ġtransl": 3635,
      "ĠProf": 3636,
      "Ġappropriate": 3637,
      "ĠWestern": 3638,
      "Ġemot": 3639,
      "Ġmedicine": 3640,
      "Ġolder": 3641,
      "Ġappears": 3642,
      "Ġthousands": 3643,
      "bl": 3644,
      "oe": 3645,
      "ĠAccording": 3646,
      "ully": 3647,
      "rief": 3648,
      "iece": 3649,
      "Ġagree": 3650,
      "Ġeffort": 3651,
      "Ġcommunication": 3652,
      "fect": 3653,
      "Ġpet": 3654,
      "Ġmental": 3655,
      "Ġalone": 3656,
      "Ġrepe": 3657,
      "Ġscreen": 3658,
      "ĠConf": 3659,
      "Ġvalues": 3660,
      "Ġthinking": 3661,
      "Ġconstruction": 3662,
      "Ġfinal": 3663,
      "oday": 3664,
      "Ġadj": 3665,
      "ruary": 3666,
      "Ġtele": 3667,
      "Ġblock": 3668,
      "ridge": 3669,
      "iot": 3670,
      "ĠPat": 3671,
      "ĠUnion": 3672,
      "Ġdistance": 3673,
      "Ġexperim": 3674,
      "Ġcontinu": 3675,
      "Ġinteresting": 3676,
      "hemat": 3677,
      "Ġpredict": 3678,
      "aid": 3679,
      "can": 3680,
      "joy": 3681,
      "su": 3682,
      "Ġpow": 3683,
      "idel": 3684,
      "ĠMex": 3685,
      "izes": 3686,
      "Ġeconomy": 3687,
      "Ġproperty": 3688,
      "Ġeyes": 3689,
      "Ġseparate": 3690,
      "29": 3691,
      "Ġking": 3692,
      "Ġsecurity": 3693,
      "Ġoccup": 3694,
      "Ġreports": 3695,
      "Ġrain": 3696,
      "Ġanything": 3697,
      "Ġacqu": 3698,
      "Ġstrateg": 3699,
      "Ġstandards": 3700,
      "Ġprojects": 3701,
      "Ġelectricity": 3702,
      "Ġlung": 3703,
      "idents": 3704,
      "aced": 3705,
      "ĠFrom": 3706,
      "orks": 3707,
      "ĠBecause": 3708,
      "Ġrules": 3709,
      "Ġadm": 3710,
      "Ġtesting": 3711,
      "Ġbreast": 3712,
      "ĠGeneral": 3713,
      "ximately": 3714,
      "Ġinsect": 3715,
      "resp": 3716,
      "Ġ23": 3717,
      "Ġnothing": 3718,
      "ĠVol": 3719,
      "Ġtrack": 3720,
      "Ġformed": 3721,
      "ĠSpec": 3722,
      "equ": 3723,
      "Ġtable": 3724,
      "orage": 3725,
      "Ġ195": 3726,
      "Ġconservation": 3727,
      "inese": 3728,
      "Ġequipment": 3729,
      "Ġpassed": 3730,
      "Ġanaly": 3731,
      "Ġargu": 3732,
      "'ve": 3733,
      "known": 3734,
      "atur": 3735,
      "ingu": 3736,
      "oma": 3737,
      "ĠNot": 3738,
      "Ġimag": 3739,
      "Ġfollowed": 3740,
      "ittee": 3741,
      "Some": 3742,
      "Ġtit": 3743,
      "Ġsch": 3744,
      "Ġmember": 3745,
      "Ġreceive": 3746,
      "EC": 3747,
      "king": 3748,
      "Ġcred": 3749,
      "ĠSee": 3750,
      "Ġapplied": 3751,
      "Ġbecomes": 3752,
      "Ġquant": 3753,
      "oring": 3754,
      "ĠInternet": 3755,
      "Ġfeatures": 3756,
      "Ġearlier": 3757,
      "ĠCollege": 3758,
      "Ġlegisl": 3759,
      "Ġlimit": 3760,
      "ĠNovember": 3761,
      "Ġweather": 3762,
      "23": 3763,
      "Un": 3764,
      "rig": 3765,
      "Ġwrote": 3766,
      "Ġmis": 3767,
      "Ġgives": 3768,
      "ĠOb": 3769,
      "ĠOf": 3770,
      "Ġjournal": 3771,
      "Ġfunctions": 3772,
      "Ġallowed": 3773,
      "Ġconstruct": 3774,
      "Ġchemicals": 3775,
      "60": 3776,
      "Ġbone": 3777,
      "Ġvacc": 3778,
      "Ġrunning": 3779,
      "ĠOctober": 3780,
      "bur": 3781,
      "oo": 3782,
      "Ġsem": 3783,
      "ĠMary": 3784,
      "Ġdeal": 3785,
      "ĠDuring": 3786,
      "ĠNow": 3787,
      "ĠVal": 3788,
      "Ġtypically": 3789,
      "eech": 3790,
      "Ġproviding": 3791,
      ".|": 3792,
      "Ex": 3793,
      "itable": 3794,
      "Ġfigure": 3795,
      "Ġhon": 3796,
      "Ġlat": 3797,
      "Ġdidn": 3798,
      "Ġreligious": 3799,
      "ĠCouncil": 3800,
      "co": 3801,
      "ees": 3802,
      "ken": 3803,
      "more": 3804,
      "Ġsituation": 3805,
      "Ġfinancial": 3806,
      "II": 3807,
      "Ġfear": 3808,
      "verse": 3809,
      "Ġfindings": 3810,
      "Ġdrive": 3811,
      "Ġcalc": 3812,
      "Ġoxygen": 3813,
      "back": 3814,
      "Ġtub": 3815,
      "Ġbodies": 3816,
      "Ġhope": 3817,
      "sec": 3818,
      "Ġexec": 3819,
      "ĠPhil": 3820,
      "aught": 3821,
      "Ġstrength": 3822,
      "rew": 3823,
      "rest": 3824,
      "icip": 3825,
      "ĠIS": 3826,
      "Ġchronic": 3827,
      "rupt": 3828,
      "Ġrob": 3829,
      "Ġrespond": 3830,
      "Ġpractices": 3831,
      "ographic": 3832,
      "Ġradio": 3833,
      "Ġrecords": 3834,
      "Ġiniti": 3835,
      "ias": 3836,
      "oration": 3837,
      "Ġstay": 3838,
      "ĠDay": 3839,
      "Ġoperations": 3840,
      "Ġbelief": 3841,
      "Ġtrying": 3842,
      "ET": 3843,
      "rition": 3844,
      "ula": 3845,
      "They": 3846,
      "Ġarr": 3847,
      "Ġadvant": 3848,
      "ĠCourt": 3849,
      "Ġbaby": 3850,
      ".;": 3851,
      "semb": 3852,
      "Ġworked": 3853,
      "aur": 3854,
      "Ġmix": 3855,
      "Ġroom": 3856,
      "Ġorganization": 3857,
      "Ġidentified": 3858,
      "Ġturned": 3859,
      "Ġcreating": 3860,
      "ĠRepublic": 3861,
      "Ġpicture": 3862,
      "ĠRead": 3863,
      "ogen": 3864,
      "Ġspirit": 3865,
      "Ġprinc": 3866,
      "Ġtechnologies": 3867,
      "rane": 3868,
      "Ġreduced": 3869,
      "ĠMedical": 3870,
      "ĠGermany": 3871,
      "Ġtowards": 3872,
      "Ġarri": 3873,
      "ĠKe": 3874,
      "Ġrot": 3875,
      "Ġroad": 3876,
      "Ġequal": 3877,
      "Ġillust": 3878,
      "Ġdegree": 3879,
      "ded": 3880,
      "Ġ...": 3881,
      "Ġmo": 3882,
      "ĠHigh": 3883,
      "ĠEven": 3884,
      "Ġleave": 3885,
      "Ġoffice": 3886,
      "Ġincreases": 3887,
      "Ġexisting": 3888,
      "Ġeventually": 3889,
      "Ġhistorical": 3890,
      "Ġefficient": 3891,
      "28": 3892,
      "ban": 3893,
      "vant": 3894,
      "edom": 3895,
      "Ġbreat": 3896,
      "ĠCO": 3897,
      "Ġscale": 3898,
      "Ġprocesses": 3899,
      "Ġmax": 3900,
      "Ġcultural": 3901,
      "Ġasp": 3902,
      "ĠPress": 3903,
      "pping": 3904,
      "Ġclinical": 3905,
      "Ġoffers": 3906,
      "Ġprin": 3907,
      "Ġtransfer": 3908,
      "Ġ2013": 3909,
      "Ġautom": 3910,
      "Ġpowerful": 3911,
      "Ġmeasures": 3912,
      "Ġmoving": 3913,
      "ha": 3914,
      "time": 3915,
      "Ġson": 3916,
      "Ġpric": 3917,
      "ĠMod": 3918,
      "ĠFound": 3919,
      "cious": 3920,
      "Ġgoes": 3921,
      "erved": 3922,
      "Ġimportance": 3923,
      "Ġvirt": 3924,
      "Ar": 3925,
      "RI": 3926,
      "ST": 3927,
      "Ġocean": 3928,
      "Ġregions": 3929,
      "wards": 3930,
      "Ġchanged": 3931,
      "Ġtou": 3932,
      "enge": 3933,
      "Ġconver": 3934,
      "ĠMars": 3935,
      "ĠArch": 3936,
      "Ġexplain": 3937,
      "ĠAustralia": 3938,
      "uff": 3939,
      "Ġgain": 3940,
      "ĠSw": 3941,
      "ession": 3942,
      "antic": 3943,
      "Ġspring": 3944,
      "Ġarmy": 3945,
      "cont": 3946,
      "Ġfactor": 3947,
      "Ġslight": 3948,
      "Ġmajority": 3949,
      "off": 3950,
      "Ġreasons": 3951,
      "olit": 3952,
      "ĠMount": 3953,
      "Ġyouth": 3954,
      "Ġ190": 3955,
      "Ġattract": 3956,
      "Ġdecades": 3957,
      "ĠPlan": 3958,
      "Ġillness": 3959,
      "iant": 3960,
      "yro": 3961,
      "Ġbank": 3962,
      "Ġmention": 3963,
      "Ġhous": 3964,
      "Ġnames": 3965,
      "irection": 3966,
      "Ġexpect": 3967,
      "ĠGovernment": 3968,
      "AM": 3969,
      "Ġshape": 3970,
      "Ġdisorder": 3971,
      "orms": 3972,
      "ĠChinese": 3973,
      "Ġobserved": 3974,
      "Ġcommercial": 3975,
      "ĠJesus": 3976,
      "aign": 3977,
      "Ġpal": 3978,
      "ortion": 3979,
      "Ġ2003": 3980,
      "Ġinstru": 3981,
      "Ġsolution": 3982,
      "Ġsymb": 3983,
      "porary": 3984,
      "Ġwinter": 3985,
      "Ġvitamin": 3986,
      "rab": 3987,
      "Ġhearing": 3988,
      "ocol": 3989,
      "Ġchance": 3990,
      "Ġenjoy": 3991,
      "Ġpeace": 3992,
      "ĠProt": 3993,
      "Ġcommonly": 3994,
      "Ġbelieved": 3995,
      "Ġpurpose": 3996,
      "Ġmoment": 3997,
      "ford": 3998,
      "rations": 3999,
      "Ġmob": 4000,
      "ado": 4001,
      "ĠHen": 4002,
      "riage": 4003,
      "Ġprison": 4004,
      "Ġdifferences": 4005,
      "Ġsuggests": 4006,
      "ĠTrans": 4007,
      "ndrome": 4008,
      "Ġbeaut": 4009,
      "ĠThen": 4010,
      "Ġvia": 4011,
      "Ġseven": 4012,
      "Ġsurvey": 4013,
      "Ġreleased": 4014,
      "Ġalternative": 4015,
      "'ll": 4016,
      "Ġmig": 4017,
      "Ġlived": 4018,
      "ĠTheir": 4019,
      "Ġves": 4020,
      "Ġeverything": 4021,
      "Ġinsp": 4022,
      "Ġtreated": 4023,
      "Ġreaction": 4024,
      "Ġlayer": 4025,
      "Ġwear": 4026,
      "Ġpul": 4027,
      "ĠHuman": 4028,
      "ondon": 4029,
      "ĠAlso": 4030,
      "Ġdestroy": 4031,
      "men": 4032,
      "orge": 4033,
      "Ġfib": 4034,
      "Ġfully": 4035,
      "ĠSun": 4036,
      "Ġcompar": 4037,
      "Ġcustom": 4038,
      "ĠFebruary": 4039,
      "AC": 4040,
      "After": 4041,
      "Ġfast": 4042,
      "ĠTex": 4043,
      "Ġstaff": 4044,
      "rie": 4045,
      "apers": 4046,
      "ĠUse": 4047,
      "ĠThus": 4048,
      "Ġeveryone": 4049,
      "Ġsteps": 4050,
      "atin": 4051,
      "level": 4052,
      "Ġstorage": 4053,
      "ibly": 4054,
      "ciples": 4055,
      "Ġemp": 4056,
      "ĠAsia": 4057,
      "Ġdefined": 4058,
      "ĠEnergy": 4059,
      "Ġindustrial": 4060,
      "ĠDevelopment": 4061,
      "27": 4062,
      "ĠAlex": 4063,
      "ocks": 4064,
      "Ġnumerous": 4065,
      "Ġenter": 4066,
      "Ġeducational": 4067,
      "Ġheavy": 4068,
      "ĠPeople": 4069,
      "hors": 4070,
      "ml": 4071,
      "atab": 4072,
      "Ġcry": 4073,
      "Ġpiece": 4074,
      "Ġplans": 4075,
      "Ġkid": 4076,
      "Ġassist": 4077,
      "ĠJews": 4078,
      "Ġteacher": 4079,
      "itect": 4080,
      "ara": 4081,
      "Ġdivid": 4082,
      "asion": 4083,
      "Ġhom": 4084,
      "Ġgirl": 4085,
      "ĠMD": 4086,
      "Ġvote": 4087,
      "Ġ28": 4088,
      "Ġacadem": 4089,
      "Ġtrial": 4090,
      "Ġstructures": 4091,
      "gment": 4092,
      "Ġnative": 4093,
      "ĠHere": 4094,
      "Ġopportunity": 4095,
      "ystem": 4096,
      "Â°": 4097,
      "Ġ:": 4098,
      "Ġfair": 4099,
      "ĠCom": 4100,
      "Ġneigh": 4101,
      "Ġdetermined": 4102,
      "Ġpump": 4103,
      "ĠMal": 4104,
      "ĠBay": 4105,
      "ĠFrance": 4106,
      "ologists": 4107,
      "ĠRev": 4108,
      "Ġprofessor": 4109,
      "Ġimmune": 4110,
      "Ġrelatively": 4111,
      "fort": 4112,
      "ht": 4113,
      "pris": 4114,
      "ample": 4115,
      "ĠMiss": 4116,
      "udd": 4117,
      "Ġrich": 4118,
      "ensus": 4119,
      "Ġsigns": 4120,
      "related": 4121,
      "tained": 4122,
      "Ġisn": 4123,
      "oted": 4124,
      "ĠEach": 4125,
      "Ġ193": 4126,
      "Ġblue": 4127,
      "Ġfemale": 4128,
      "Ġatmosphere": 4129,
      "Ġreb": 4130,
      "iding": 4131,
      "ĠPal": 4132,
      "spec": 4133,
      "Ġmuscle": 4134,
      "Ġchoose": 4135,
      "ĠChildren": 4136,
      "HE": 4137,
      "Ġswe": 4138,
      "Ġwatch": 4139,
      "Ġhair": 4140,
      "Ġparty": 4141,
      "Ġflood": 4142,
      "Ġbox": 4143,
      "Ġforeign": 4144,
      "Ġload": 4145,
      "Ġestimated": 4146,
      "Ġcapacity": 4147,
      "Ph": 4148,
      "ĠCath": 4149,
      "ĠRef": 4150,
      "Ġenh": 4151,
      "Ġboard": 4152,
      "Ġradiation": 4153,
      "Ġdigital": 4154,
      "Ġfriends": 4155,
      "ĠAut": 4156,
      "abilities": 4157,
      "ria": 4158,
      "Ġcontrast": 4159,
      "Ġinfl": 4160,
      "Ġreference": 4161,
      "Ġvisual": 4162,
      "clus": 4163,
      "Ġhighest": 4164,
      "Ġpatterns": 4165,
      "Ġmessage": 4166,
      "Ġvessel": 4167,
      "All": 4168,
      "Ġpages": 4169,
      "Ġhuge": 4170,
      "ĠFin": 4171,
      "Ġ2001": 4172,
      "ĠIsland": 4173,
      "cers": 4174,
      "name": 4175,
      "Ġfresh": 4176,
      "Ġlinks": 4177,
      "ĠMa": 4178,
      "key": 4179,
      "Ġrise": 4180,
      "ĠJames": 4181,
      "phas": 4182,
      "Ġgeneration": 4183,
      "Ġlearned": 4184,
      "Ġminor": 4185,
      "Ġorganizations": 4186,
      "Ġsamples": 4187,
      "ona": 4188,
      "Ġmap": 4189,
      "ĠSer": 4190,
      "ĠCivil": 4191,
      "essor": 4192,
      "ellig": 4193,
      "Ġpoly": 4194,
      "Ġconstant": 4195,
      "part": 4196,
      "ifically": 4197,
      "ander": 4198,
      "ĠFlor": 4199,
      "iox": 4200,
      "While": 4201,
      "Ġwidely": 4202,
      "ĠVirgin": 4203,
      "iance": 4204,
      "Ġign": 4205,
      "ribute": 4206,
      "Ġdistribution": 4207,
      "ĠCommission": 4208,
      "Ġopportunities": 4209,
      "Ġfavor": 4210,
      "RE": 4211,
      "cast": 4212,
      "house": 4213,
      "uz": 4214,
      "win": 4215,
      "Ġcities": 4216,
      "omas": 4217,
      "Ġlic": 4218,
      "ĠMuseum": 4219,
      "ĠNet": 4220,
      "Ġclust": 4221,
      "Ġqual": 4222,
      "Ġvision": 4223,
      "gl": 4224,
      "reet": 4225,
      "arge": 4226,
      "Ġhomes": 4227,
      "Ġupper": 4228,
      "ĠFl": 4229,
      "Ġsquare": 4230,
      "Ġdoub": 4231,
      "Ġevalu": 4232,
      "encies": 4233,
      "ĠDirect": 4234,
      "Ġchurch": 4235,
      "Ġspeech": 4236,
      "Ġpresence": 4237,
      "ĠProject": 4238,
      "Ġinstance": 4239,
      "Ġrelease": 4240,
      "Ġbehavi": 4241,
      "Ġdetails": 4242,
      "Ġconducted": 4243,
      "Ġimmediately": 4244,
      "rehens": 4245,
      "Ġphen": 4246,
      "Ġbound": 4247,
      "Ġbattle": 4248,
      "Ġstories": 4249,
      "ĠJust": 4250,
      "Ġunivers": 4251,
      "Ġrace": 4252,
      "Ġapproximately": 4253,
      "Ġtemperatures": 4254,
      "Ġdro": 4255,
      "Ġdirection": 4256,
      "ĠMart": 4257,
      "Ġ29": 4258,
      "Ġexperiment": 4259,
      "Ġinterested": 4260,
      "ĠTexas": 4261,
      "Ġsac": 4262,
      "Ġcru": 4263,
      "Ġlib": 4264,
      "Ġvary": 4265,
      "que": 4266,
      "Ġ2002": 4267,
      "Ġindependent": 4268,
      "Ġsusp": 4269,
      "Be": 4270,
      "Ġgal": 4271,
      "Ġstem": 4272,
      "eces": 4273,
      "ĠOur": 4274,
      "Ġincor": 4275,
      "Ġphilosoph": 4276,
      "Ġemail": 4277,
      "Ġconflic": 4278,
      "Ġremoved": 4279,
      "Ġdisplay": 4280,
      "Ġwond": 4281,
      "ctic": 4282,
      "Ġpartners": 4283,
      "Ġ189": 4284,
      "ĠSpace": 4285,
      "Ġrecommend": 4286,
      "Ġwest": 4287,
      "ĠAv": 4288,
      "Ġwhom": 4289,
      "ocal": 4290,
      "Ġrang": 4291,
      "Ġsyn": 4292,
      "Ġremember": 4293,
      "Ġchoice": 4294,
      "Ġannual": 4295,
      "ĠSen": 4296,
      "ĠCap": 4297,
      "Ġstim": 4298,
      "Ġconsequ": 4299,
      "Ġrat": 4300,
      "Ġinstruct": 4301,
      "Ġmilk": 4302,
      "Ġclearly": 4303,
      "Ġintroduced": 4304,
      "bed": 4305,
      "tical": 4306,
      "zing": 4307,
      "Ġcateg": 4308,
      "ĠPublic": 4309,
      "Ġexhib": 4310,
      "unction": 4311,
      "Ġnoted": 4312,
      "Ġenem": 4313,
      "ĠUnder": 4314,
      "Ġresource": 4315,
      "Ġinform": 4316,
      "Ġfeature": 4317,
      "Ġdetect": 4318,
      "ĠNews": 4319,
      "Ġserve": 4320,
      "Ġextremely": 4321,
      "From": 4322,
      "Ġ27": 4323,
      "Ġanyone": 4324,
      "Ġexpress": 4325,
      "Ġcounty": 4326,
      "Ġopin": 4327,
      "Ġprofessional": 4328,
      "Ġconsumption": 4329,
      "Ġcounter": 4330,
      "Ġmachine": 4331,
      "Ġinnov": 4332,
      "Ġsed": 4333,
      "itz": 4334,
      "rian": 4335,
      "Ġ26": 4336,
      "Ġmeat": 4337,
      "Ġmetal": 4338,
      "ĠWhite": 4339,
      "Ġstatus": 4340,
      "Ġfaith": 4341,
      "ÃŃ": 4342,
      "Ġmal": 4343,
      "ĠSim": 4344,
      "Ġneu": 4345,
      "Ġleaves": 4346,
      "Ġweak": 4347,
      "ĠInst": 4348,
      "ager": 4349,
      "Ġteaching": 4350,
      "Ġactual": 4351,
      "Ġauthors": 4352,
      "Ġplanning": 4353,
      "Ġaid": 4354,
      "Ġplease": 4355,
      "Ġfields": 4356,
      "Ġeating": 4357,
      "ett": 4358,
      "ĠMass": 4359,
      "ĠRo": 4360,
      "ĠLou": 4361,
      "ords": 4362,
      "Ġfiles": 4363,
      "Ġhabitat": 4364,
      "ĠInformation": 4365,
      "respond": 4366,
      "ped": 4367,
      "yn": 4368,
      "ishes": 4369,
      "Ġfoss": 4370,
      "Ġfert": 4371,
      "ament": 4372,
      "umn": 4373,
      "Ġspect": 4374,
      "Ġunf": 4375,
      "Ġexposed": 4376,
      "Ġantib": 4377,
      "Ġcombination": 4378,
      "Ġmotor": 4379,
      "Ġgiving": 4380,
      "Ġforward": 4381,
      "Ġactions": 4382,
      "Ġtruth": 4383,
      "Ġcoal": 4384,
      "Ġinvolve": 4385,
      "Ġproperties": 4386,
      "Ġletter": 4387,
      "Ġfruit": 4388,
      "Res": 4389,
      "iable": 4390,
      "Ġsect": 4391,
      "Ġmic": 4392,
      "rog": 4393,
      "Ġrul": 4394,
      "Ġround": 4395,
      "ĠLear": 4396,
      "Ġemissions": 4397,
      "Ġserved": 4398,
      "ĠCommon": 4399,
      "Ġfilm": 4400,
      "Ġconnection": 4401,
      "Ġfriend": 4402,
      "ĠAcadem": 4403,
      "cest": 4404,
      "Ġesc": 4405,
      "ste": 4406,
      "Ġnote": 4407,
      "ĠLondon": 4408,
      "cipl": 4409,
      "Ġreprodu": 4410,
      "Ġmathemat": 4411,
      "ĠQue": 4412,
      "Many": 4413,
      "SI": 4414,
      "rant": 4415,
      "uild": 4416,
      "Ġpick": 4417,
      "ĠOff": 4418,
      "Ġresistance": 4419,
      "Ġ80": 4420,
      "ĠEnvironmental": 4421,
      "oice": 4422,
      "Ġsand": 4423,
      "Ġdu": 4424,
      "ĠAng": 4425,
      "umber": 4426,
      "Ġupd": 4427,
      "Ġexamples": 4428,
      "Ġdistinct": 4429,
      "Ġresulting": 4430,
      "Ġarticles": 4431,
      "Ġclassroom": 4432,
      "Ġfailure": 4433,
      "ĠGreek": 4434,
      "Ġstrugg": 4435,
      "Ġpp": 4436,
      "Ġsugar": 4437,
      "Ġapply": 4438,
      "oyal": 4439,
      "Ġperformed": 4440,
      "Ġmoved": 4441,
      "Ġpolicies": 4442,
      "ĠMuslim": 4443,
      "ault": 4444,
      "och": 4445,
      "Ġliqu": 4446,
      "Ġnor": 4447,
      "Ġstars": 4448,
      "ĠRober": 4449,
      "Ġspent": 4450,
      "Ġfinding": 4451,
      "Ġproposed": 4452,
      "Ġfrequently": 4453,
      "ĠService": 4454,
      "Ġcand": 4455,
      "Ġdim": 4456,
      "romos": 4457,
      "ĠFore": 4458,
      "Ġassum": 4459,
      "Ġsolid": 4460,
      "Ġsample": 4461,
      "Ġbottom": 4462,
      "33": 4463,
      "itors": 4464,
      "Ġmer": 4465,
      "Ġnorm": 4466,
      "ensity": 4467,
      "Ġsave": 4468,
      "clop": 4469,
      "Ġadvice": 4470,
      "Ġgrant": 4471,
      "Ġcampaign": 4472,
      "Ġreferred": 4473,
      "ero": 4474,
      "Ġmamm": 4475,
      "Ġnorthern": 4476,
      "ĠBro": 4477,
      "Ġkilled": 4478,
      "Ġprice": 4479,
      "Ġgets": 4480,
      "ĠPhys": 4481,
      "Ġpurch": 4482,
      "Ġvolunt": 4483,
      "Ġwrong": 4484,
      "ĠTur": 4485,
      "othes": 4486,
      "Ġexcess": 4487,
      "Ġchief": 4488,
      "Ġ22": 4489,
      "Ġoverall": 4490,
      "New": 4491,
      "ping": 4492,
      "Ġtro": 4493,
      "Ġbow": 4494,
      "Ġmel": 4495,
      "Ġhur": 4496,
      "verty": 4497,
      "Ġstage": 4498,
      "illing": 4499,
      "Ġhelped": 4500,
      "Ġcarried": 4501,
      "Ġmorning": 4502,
      "Ġgarden": 4503,
      "Ġtrou": 4504,
      "Ġbran": 4505,
      "roc": 4506,
      "iling": 4507,
      "Ġpoverty": 4508,
      "ĠConstitution": 4509,
      "Ġsitu": 4510,
      "Ġabsor": 4511,
      "Ġinjury": 4512,
      "Ġcollabor": 4513,
      "Ġmonitoring": 4514,
      "Ġchallenges": 4515,
      "yroid": 4516,
      "Americ": 4517,
      "kin": 4518,
      "ented": 4519,
      "Ġnav": 4520,
      "olved": 4521,
      "Ġkil": 4522,
      "iatric": 4523,
      "45": 4524,
      "US": 4525,
      "ael": 4526,
      "isher": 4527,
      "Ġreached": 4528,
      "Ġisol": 4529,
      "ĠHIV": 4530,
      "asses": 4531,
      "Ġchanging": 4532,
      "Ġcausing": 4533,
      "Ġpresented": 4534,
      "Ġelection": 4535,
      "ĠAtl": 4536,
      "Ġelim": 4537,
      "ĠFlorida": 4538,
      "OS": 4539,
      "band": 4540,
      "with": 4541,
      "zy": 4542,
      "Ġfine": 4543,
      "Ġship": 4544,
      "Ġbecoming": 4545,
      "Ġexpression": 4546,
      "ĠCancer": 4547,
      "Ġdiagnosis": 4548,
      "CC": 4549,
      "mark": 4550,
      "Ġcamer": 4551,
      "oral": 4552,
      "Ġmit": 4553,
      "ilit": 4554,
      "iring": 4555,
      "acific": 4556,
      "ĠDec": 4557,
      "Ġbelong": 4558,
      "Ġdegrees": 4559,
      "Ġconclud": 4560,
      "Ġsouthern": 4561,
      "Ġdrinking": 4562,
      "ĠMexico": 4563,
      "Ġther": 4564,
      "Ġcast": 4565,
      "ĠDes": 4566,
      "aped": 4567,
      "Ġmeant": 4568,
      "Ġdecided": 4569,
      "That": 4570,
      "Ġbackground": 4571,
      "Ġtrend": 4572,
      "what": 4573,
      "gal": 4574,
      "Ġsav": 4575,
      "isp": 4576,
      "orial": 4577,
      "Ġhunt": 4578,
      "Ġstore": 4579,
      "ĠLa": 4580,
      "Ġtechnique": 4581,
      "Ġ70": 4582,
      "ĠCarol": 4583,
      "Ġmeeting": 4584,
      "Ġarchitect": 4585,
      "ij": 4586,
      "Ġhear": 4587,
      "Ġincome": 4588,
      "Ġyourself": 4589,
      "Ġletters": 4590,
      "Ġproteins": 4591,
      "Ġpreviously": 4592,
      "ux": 4593,
      "vis": 4594,
      "Ġmere": 4595,
      "Ġmale": 4596,
      "Ġdatab": 4597,
      "rad": 4598,
      "ams": 4599,
      "uses": 4600,
      "Ġ1999": 4601,
      "Ġinitial": 4602,
      "Most": 4603,
      "eff": 4604,
      "anish": 4605,
      "Ġmouth": 4606,
      "Ġdrop": 4607,
      "ĠEv": 4608,
      "Ġarm": 4609,
      "Ġsyndrome": 4610,
      "rence": 4611,
      "Ġsecret": 4612,
      "Ġfamous": 4613,
      "Ġstatement": 4614,
      "Ġstarting": 4615,
      "Ġcorrespond": 4616,
      "Ġfinally": 4617,
      "Ġreplace": 4618,
      "Ġoptions": 4619,
      "32": 4620,
      "Ġfif": 4621,
      "anks": 4622,
      "omic": 4623,
      "ĠRich": 4624,
      "Ġperfect": 4625,
      "Ġstudied": 4626,
      "oviet": 4627,
      "Ġremained": 4628,
      "Ġpersons": 4629,
      "Ġgrand": 4630,
      "ĠIslam": 4631,
      "Ġoccurred": 4632,
      "Ġbiological": 4633,
      "Ġchallenge": 4634,
      "Ġlinked": 4635,
      "Is": 4636,
      "wing": 4637,
      "Ġfig": 4638,
      "Ġgar": 4639,
      "Ġgames": 4640,
      "Ġconvent": 4641,
      "Ġclim": 4642,
      "ava": 4643,
      "ĠKore": 4644,
      "Ġdesp": 4645,
      "Ġkept": 4646,
      "Ġserver": 4647,
      "Ġcycle": 4648,
      "ĠCatholic": 4649,
      "Ab": 4650,
      "ieces": 4651,
      "onic": 4652,
      "idity": 4653,
      "Ġconv": 4654,
      "ĠLabor": 4655,
      "Ġpret": 4656,
      "Ġnovel": 4657,
      "ĠWhy": 4658,
      "Ġprocessing": 4659,
      "Ġinvolves": 4660,
      "ĠIII": 4661,
      "Ġemergency": 4662,
      "EL": 4663,
      "chers": 4664,
      "ald": 4665,
      "Ġdoll": 4666,
      "ĠTest": 4667,
      "Ġalle": 4668,
      "ĠPort": 4669,
      "Ġheard": 4670,
      "Ġcontext": 4671,
      "Ġemphas": 4672,
      "Ġmarine": 4673,
      "Ġfreedom": 4674,
      "Ġamounts": 4675,
      "Ġelectrical": 4676,
      "crib": 4677,
      "well": 4678,
      "Äģ": 4679,
      "Ġcovered": 4680,
      "astern": 4681,
      "Ġhospital": 4682,
      "ĠMag": 4683,
      "ĠPaul": 4684,
      "ache": 4685,
      "ĠOver": 4686,
      "Ġcontract": 4687,
      "Ġdiscover": 4688,
      "Ġterrit": 4689,
      "ĠTechnology": 4690,
      "AP": 4691,
      "Ġtiny": 4692,
      "Ġcook": 4693,
      "Ġrenew": 4694,
      "Ġgold": 4695,
      "Ġonto": 4696,
      "ulating": 4697,
      "ĠLife": 4698,
      "Ġexpert": 4699,
      "Ġcontinues": 4700,
      "Ġhappen": 4701,
      "force": 4702,
      "Ġprices": 4703,
      "care": 4704,
      "yt": 4705,
      "Ġpip": 4706,
      "Ġhour": 4707,
      "Ġeast": 4708,
      "uted": 4709,
      "ĠSam": 4710,
      "Ġspot": 4711,
      "Ġunit": 4712,
      "Ġoperation": 4713,
      "Ġeasier": 4714,
      "Ġdescribe": 4715,
      "Although": 4716,
      "ĠJapanese": 4717,
      "Ġthick": 4718,
      "Ġnan": 4719,
      "Ġnations": 4720,
      "iful": 4721,
      "istan": 4722,
      "Ġworth": 4723,
      "inson": 4724,
      "Ġmemb": 4725,
      "Ġwanted": 4726,
      "Ġrecorded": 4727,
      "Ġreturned": 4728,
      "Ġpollution": 4729,
      "Ġofficials": 4730,
      "Ġbalance": 4731,
      "ĠFoundation": 4732,
      "Sp": 4733,
      "bal": 4734,
      "mit": 4735,
      "urance": 4736,
      "Ġperman": 4737,
      "ĠProv": 4738,
      "Ġshowing": 4739,
      "Ġ90": 4740,
      "ĠFranc": 4741,
      "Ġsymbol": 4742,
      "Now": 4743,
      "pre": 4744,
      "ini": 4745,
      "Ġinh": 4746,
      "state": 4747,
      "olute": 4748,
      "Ġconvers": 4749,
      "ĠMem": 4750,
      "ĠMiddle": 4751,
      "that": 4752,
      "ĠDem": 4753,
      "ĠLord": 4754,
      "Ġoutput": 4755,
      "Ġquar": 4756,
      "ĠViet": 4757,
      "Ġgraph": 4758,
      "rolog": 4759,
      "Ġleader": 4760,
      "Ġrisks": 4761,
      "Ġdirector": 4762,
      "Ġdiscussion": 4763,
      "36": 4764,
      "Cl": 4765,
      "Ġded": 4766,
      "amental": 4767,
      "Ġshut": 4768,
      "Ġrequirements": 4769,
      "ĠRussian": 4770,
      "Ġadvantage": 4771,
      "Ġprinciples": 4772,
      "rat": 4773,
      "west": 4774,
      "Ġsen": 4775,
      "lements": 4776,
      "olid": 4777,
      "ĠWomen": 4778,
      "ĠFood": 4779,
      "Ġclos": 4780,
      "Ġinfections": 4781,
      "Ġcoord": 4782,
      "Ġlooks": 4783,
      "Ġcharacteristics": 4784,
      "ĠGeorge": 4785,
      "board": 4786,
      "Ġstrategies": 4787,
      "uit": 4788,
      "Ġfix": 4789,
      "ching": 4790,
      "ĠBel": 4791,
      "ĠElect": 4792,
      "ĠLake": 4793,
      "Ġmostly": 4794,
      "Ġcompleted": 4795,
      "Ġsaying": 4796,
      "Ġimproved": 4797,
      "which": 4798,
      "ĠCharles": 4799,
      "Ġdivided": 4800,
      "OT": 4801,
      "Ġwestern": 4802,
      "arrow": 4803,
      "Ġhop": 4804,
      "Ġstyle": 4805,
      "ague": 4806,
      "ception": 4807,
      "Ġguide": 4808,
      "Ġprepared": 4809,
      "Other": 4810,
      "Ġ+": 4811,
      "eria": 4812,
      "Ġsort": 4813,
      "itness": 4814,
      "Ġpestic": 4815,
      "icial": 4816,
      "berg": 4817,
      "Ġpolice": 4818,
      "Ġdiscovery": 4819,
      "Ġsubstant": 4820,
      "Ġaspects": 4821,
      "89": 4822,
      "pat": 4823,
      "vity": 4824,
      "Ġwet": 4825,
      "ĠSub": 4826,
      "osystem": 4827,
      "Ġrub": 4828,
      "ĠIts": 4829,
      "Ġscen": 4830,
      "Ġexperts": 4831,
      "Ġcreation": 4832,
      "Ġgovernments": 4833,
      "Ġreducing": 4834,
      "Ġfarmers": 4835,
      "Ġtherm": 4836,
      "ses": 4837,
      "vision": 4838,
      "ingly": 4839,
      "aria": 4840,
      "utive": 4841,
      "ĠAir": 4842,
      "Ġexcell": 4843,
      "ĠFederal": 4844,
      "ructure": 4845,
      "Ġprimarily": 4846,
      "Ġreligion": 4847,
      "Ġregarding": 4848,
      "Ġeggs": 4849,
      "idelines": 4850,
      "According": 4851,
      "No": 4852,
      "rans": 4853,
      "ram": 4854,
      "ĠSl": 4855,
      "ĠBer": 4856,
      "erences": 4857,
      "ĠWind": 4858,
      "ĠRel": 4859,
      "Ġnotes": 4860,
      "Ġcontem": 4861,
      "Ġrecy": 4862,
      "Ġcenturies": 4863,
      "Ġready": 4864,
      "ĠColumb": 4865,
      "Ġoperating": 4866,
      "Ġsuggested": 4867,
      "CD": 4868,
      "More": 4869,
      "heim": 4870,
      "igen": 4871,
      "ĠMil": 4872,
      "ĠWild": 4873,
      "place": 4874,
      "rick": 4875,
      "Ġremove": 4876,
      "Ġinstitutions": 4877,
      "Ġbegins": 4878,
      "75": 4879,
      "Ġiron": 4880,
      "Ġbright": 4881,
      "Ġdust": 4882,
      "uration": 4883,
      "Ġyellow": 4884,
      "ĠMat": 4885,
      "Ġexplore": 4886,
      "aughter": 4887,
      "Ġpregnancy": 4888,
      "Ġinterpret": 4889,
      "Ġexactly": 4890,
      "Ġtour": 4891,
      "Ġsnow": 4892,
      "Ġcris": 4893,
      "Ġbond": 4894,
      "roph": 4895,
      "iled": 4896,
      "etics": 4897,
      "ĠCast": 4898,
      "ĠPsych": 4899,
      "unk": 4900,
      "ĠCentral": 4901,
      "Ġmotion": 4902,
      "Ġvolume": 4903,
      "Ġsignificantly": 4904,
      "Ġconnect": 4905,
      "Ġcontaining": 4906,
      "Ġindicate": 4907,
      "Ġrecognized": 4908,
      "going": 4909,
      "Ġacademic": 4910,
      "comm": 4911,
      "Ġtun": 4912,
      "inations": 4913,
      "Ġnit": 4914,
      "ĠMr": 4915,
      "ĠDon": 4916,
      "ĠUp": 4917,
      "Ġelectronic": 4918,
      "Ġpromote": 4919,
      "Ġerror": 4920,
      "Ġcollege": 4921,
      "ributed": 4922,
      "Ġexperienced": 4923,
      "down": 4924,
      "tle": 4925,
      "Ġburn": 4926,
      "ĠST": 4927,
      "ĠSum": 4928,
      "heric": 4929,
      "âĢĿ.": 4930,
      "Ġteach": 4931,
      "Ġ1990": 4932,
      "Ġreduction": 4933,
      "Ġelement": 4934,
      "Ġparticipants": 4935,
      "Ġutil": 4936,
      "ĠVirginia": 4937,
      "See": 4938,
      "Ġsong": 4939,
      "cel": 4940,
      "ĠAN": 4941,
      "ĠSoviet": 4942,
      "ĠPacific": 4943,
      "ears": 4944,
      "Ġcomprehens": 4945,
      "Ġju": 4946,
      "Ġdecisions": 4947,
      "ounced": 4948,
      "Ġmeasured": 4949,
      "pective": 4950,
      "Ġrevolution": 4951,
      "Ġoriginally": 4952,
      "ball": 4953,
      "ta": 4954,
      "inf": 4955,
      "isation": 4956,
      "Ġinternal": 4957,
      "Ġhorm": 4958,
      "Ġgod": 4959,
      "elled": 4960,
      "akers": 4961,
      "Ġnewsp": 4962,
      "ĠArmy": 4963,
      "Ġhappens": 4964,
      "Ġcombined": 4965,
      "Ġfram": 4966,
      "Ġhundreds": 4967,
      "ĠSmith": 4968,
      "Ġdangerous": 4969,
      "Ġmaximum": 4970,
      "Ġslightly": 4971,
      "nel": 4972,
      "normal": 4973,
      "rum": 4974,
      "ĠArab": 4975,
      "ĠWork": 4976,
      "ĠDise": 4977,
      "Ġplastic": 4978,
      "aker": 4979,
      "Ġprefer": 4980,
      "Ġextent": 4981,
      "Ġlargely": 4982,
      "Ġbuildings": 4983,
      "Ġcircum": 4984,
      "ortunately": 4985,
      "Ġrelationships": 4986,
      "Ġrecommended": 4987,
      "Ġappeared": 4988,
      "ĠHenry": 4989,
      "inating": 4990,
      "Ġinput": 4991,
      "Ġvast": 4992,
      "aste": 4993,
      "Ġdisapp": 4994,
      "icking": 4995,
      "Ġtested": 4996,
      "Ġcharge": 4997,
      "Ġtopic": 4998,
      "Ġbrother": 4999,
      "Ġdoctors": 5000,
      "Ġinfluen": 5001,
      "64": 5002,
      "ixt": 5003,
      "oln": 5004,
      "change": 5005,
      "Ġstored": 5006,
      "Ġhaz": 5007,
      "Ġconsult": 5008,
      "Ġadvanced": 5009,
      "ĠLouis": 5010,
      "do": 5011,
      "Ġpieces": 5012,
      "Ġreality": 5013,
      "Ġancest": 5014,
      "Ġintellig": 5015,
      "ishing": 5016,
      "Ġsynt": 5017,
      "ĠScient": 5018,
      "Ġauthority": 5019,
      "ĠBritain": 5020,
      "Ġengineering": 5021,
      "HA": 5022,
      "RO": 5023,
      "ras": 5024,
      "Ġwww": 5025,
      "Ġpun": 5026,
      "ĠToday": 5027,
      "ota": 5028,
      "ulum": 5029,
      "Ġkm": 5030,
      "ĠThomas": 5031,
      "Ġsetting": 5032,
      "Ġbird": 5033,
      "Ġprocedure": 5034,
      "Ġphenomen": 5035,
      "38": 5036,
      "eal": 5037,
      "works": 5038,
      "za": 5039,
      "Ġwife": 5040,
      "ndom": 5041,
      "ĠEmp": 5042,
      "Ġconsists": 5043,
      "Ġobvious": 5044,
      "hetic": 5045,
      "ĠAcademy": 5046,
      "ĠRobert": 5047,
      "icit": 5048,
      "ĠMont": 5049,
      "Ġsufficient": 5050,
      "oster": 5051,
      "Ġsurpris": 5052,
      "cyclop": 5053,
      "Ġorganisms": 5054,
      "However": 5055,
      "Ġdefinition": 5056,
      "kes": 5057,
      "rust": 5058,
      "Ġped": 5059,
      "Ġbones": 5060,
      "Ġfaster": 5061,
      "Ġmos": 5062,
      "Ġhit": 5063,
      "ĠSal": 5064,
      "resents": 5065,
      "ĠDist": 5066,
      "ĠRights": 5067,
      "arts": 5068,
      "Ġnotice": 5069,
      "Ġtrig": 5070,
      "ossible": 5071,
      "Ġdiscrim": 5072,
      "ĠConn": 5073,
      "Ġorganic": 5074,
      "Ġsupported": 5075,
      "Ġcomputers": 5076,
      "ĠOrgan": 5077,
      "Ġstraight": 5078,
      "78": 5079,
      "rating": 5080,
      "Ġfing": 5081,
      "Ġliver": 5082,
      "ĠTwo": 5083,
      "ĠAD": 5084,
      "Ġroof": 5085,
      "Ġdocuments": 5086,
      "pidem": 5087,
      "Ġliterature": 5088,
      "Ġvictim": 5089,
      "cript": 5090,
      "zen": 5091,
      "Ġple": 5092,
      "Ġfol": 5093,
      "rot": 5094,
      "amil": 5095,
      "opy": 5096,
      "apes": 5097,
      "Ġdiss": 5098,
      "Ġinstall": 5099,
      "Ġdistingu": 5100,
      "Ġcapable": 5101,
      "Ġclasses": 5102,
      "Ġlooked": 5103,
      "ĠColor": 5104,
      "Ġwildlife": 5105,
      "Ġvillage": 5106,
      "Ġcontrolled": 5107,
      "Ġincorpor": 5108,
      "Ġsend": 5109,
      "Ġband": 5110,
      "Ġfal": 5111,
      "Ġlatter": 5112,
      "osen": 5113,
      "ĠJer": 5114,
      "Ġunits": 5115,
      "Ġoffered": 5116,
      "Ġallowing": 5117,
      "Ġtrials": 5118,
      "Ġimpacts": 5119,
      "Ġfailed": 5120,
      "Ġlaboratory": 5121,
      "Ġwarming": 5122,
      "Ġwalls": 5123,
      "Ġsustainable": 5124,
      "Ġrepeated": 5125,
      "Ġinflamm": 5126,
      "last": 5127,
      "inic": 5128,
      "Ġstation": 5129,
      "Ġwealth": 5130,
      "achuse": 5131,
      "Ġ185": 5132,
      "Ġjustice": 5133,
      "Ġeastern": 5134,
      "Ġtopics": 5135,
      "incoln": 5136,
      "Ġconcerned": 5137,
      "Ġconcepts": 5138,
      "Ġjobs": 5139,
      "Ġcomponents": 5140,
      "100": 5141,
      "EM": 5142,
      "rich": 5143,
      "Ġsin": 5144,
      "Ġfly": 5145,
      "Ġdie": 5146,
      "olars": 5147,
      "ĠRet": 5148,
      "ĠLatin": 5149,
      "Ġsupplies": 5150,
      "Ġorganized": 5151,
      "Ġhyper": 5152,
      "Ġagricultural": 5153,
      "TM": 5154,
      "tts": 5155,
      "arp": 5156,
      "ellect": 5157,
      "Ġitems": 5158,
      "ĠGroup": 5159,
      "ĠOp": 5160,
      "ago": 5161,
      "aks": 5162,
      "ĠVict": 5163,
      "Ġrandom": 5164,
      "Ġ31": 5165,
      "Ġtrust": 5166,
      "example": 5167,
      "Ġplayed": 5168,
      "Ġfacilities": 5169,
      "Ġliquid": 5170,
      "achusetts": 5171,
      "alle": 5172,
      "Ġforced": 5173,
      "ibl": 5174,
      "Ġteeth": 5175,
      "Ġspecifically": 5176,
      "Ġaircraft": 5177,
      "Ġpaint": 5178,
      "Ġconcern": 5179,
      "Ġlaunch": 5180,
      "Ġmanufacture": 5181,
      "ey": 5182,
      "tra": 5183,
      "itage": 5184,
      "Ġgall": 5185,
      "Ġexternal": 5186,
      "agues": 5187,
      "Ġtwenty": 5188,
      "Ġ35": 5189,
      "Ġformat": 5190,
      "Ġbuy": 5191,
      "standing": 5192,
      "Ġmillions": 5193,
      "espite": 5194,
      "Ġcollected": 5195,
      "ĠStudents": 5196,
      "Ġpurposes": 5197,
      "Ġrapidly": 5198,
      "Ġgalax": 5199,
      "lers": 5200,
      "ective": 5201,
      "ĠDef": 5202,
      "ĠLeg": 5203,
      "Ġmanner": 5204,
      "cium": 5205,
      "Ġphone": 5206,
      "Ġsky": 5207,
      "Ġdescription": 5208,
      "Ġprofession": 5209,
      "Ġastron": 5210,
      "ĠBlack": 5211,
      "ĠSecurity": 5212,
      "Ġnutri": 5213,
      "Ġphysician": 5214,
      "Ġexperiments": 5215,
      "RC": 5216,
      "Ġfort": 5217,
      "Ġjoint": 5218,
      "ĠKen": 5219,
      "Ġknew": 5220,
      "Ġroot": 5221,
      "Ġgreatest": 5222,
      "Ġlandsc": 5223,
      "Ġflowers": 5224,
      "Ġsubjects": 5225,
      "Ġfundamental": 5226,
      "Ġmassive": 5227,
      "Ġselected": 5228,
      "Ġmoist": 5229,
      "85": 5230,
      "Ġtask": 5231,
      "inter": 5232,
      "ari": 5233,
      "Ġcloth": 5234,
      "Ġcalls": 5235,
      "Ġaffects": 5236,
      "Ġequival": 5237,
      "Ġmovements": 5238,
      "Ġmuscles": 5239,
      "Ġresponsibility": 5240,
      "Ġdynam": 5241,
      "Ad": 5242,
      "BC": 5243,
      "ares": 5244,
      "des": 5245,
      "ville": 5246,
      "Ġsides": 5247,
      "Ġcore": 5248,
      "Ġfirm": 5249,
      "ĠPri": 5250,
      "ĠPower": 5251,
      "Ġleaving": 5252,
      "active": 5253,
      "Ġrepresents": 5254,
      "Ġattached": 5255,
      "Ġflat": 5256,
      "Ġinterf": 5257,
      "Ġ1998": 5258,
      "Ġapproaches": 5259,
      "iveness": 5260,
      "Ġdetailed": 5261,
      "Ġnutrition": 5262,
      "Ġadjust": 5263,
      "'m": 5264,
      "Sh": 5265,
      "eer": 5266,
      "met": 5267,
      "Ġ>": 5268,
      "inet": 5269,
      "Ġpil": 5270,
      "Ġfell": 5271,
      "Ġfelt": 5272,
      "Ġisland": 5273,
      "olf": 5274,
      "ĠTreat": 5275,
      "Ġplat": 5276,
      "Ġintended": 5277,
      "Ġgoals": 5278,
      "Ġattacks": 5279,
      "Ġ45": 5280,
      "Ġautism": 5281,
      ":||": 5282,
      "IL": 5283,
      "col": 5284,
      "Ġsalt": 5285,
      "Ġtow": 5286,
      "osph": 5287,
      "Ġrough": 5288,
      "Ġappoint": 5289,
      "Ġcolors": 5290,
      "Ġphase": 5291,
      "Ġexpensive": 5292,
      "Ġformation": 5293,
      "Ġshel": 5294,
      "Ġdepth": 5295,
      "Ġpromot": 5296,
      "Ġproperly": 5297,
      "ĠCompany": 5298,
      "ĠRussia": 5299,
      "ĠOffice": 5300,
      "90": 5301,
      "ION": 5302,
      "tion": 5303,
      "Ġmuseum": 5304,
      "Ġstro": 5305,
      "Ġconstitution": 5306,
      "ĠHel": 5307,
      "Ġvent": 5308,
      "ĠGal": 5309,
      "Ġspl": 5310,
      "Ġadapt": 5311,
      "Ġotherwise": 5312,
      "Ġprepar": 5313,
      "Ġraised": 5314,
      "Ġtechnical": 5315,
      "ometimes": 5316,
      "Ġadvance": 5317,
      "Ġkinds": 5318,
      "Ġincreasingly": 5319,
      "Ġassessment": 5320,
      "American": 5321,
      "Ġdatabase": 5322,
      "Con": 5323,
      "Here": 5324,
      "ean": 5325,
      "Ġcere": 5326,
      "Ġpure": 5327,
      "Ġfle": 5328,
      "osite": 5329,
      "Ġshot": 5330,
      "inding": 5331,
      "Ġtraffic": 5332,
      "Ġdistrict": 5333,
      "Ġparticles": 5334,
      "Ġtreatments": 5335,
      "Ġfrequency": 5336,
      "Ġhousehold": 5337,
      "Ġabsolute": 5338,
      "Ġefficiency": 5339,
      "Ġnormally": 5340,
      "Ġtroops": 5341,
      "bec": 5342,
      "een": 5343,
      "Ġmath": 5344,
      "Ġdial": 5345,
      "irth": 5346,
      "throp": 5347,
      "oper": 5348,
      "ĠOnce": 5349,
      "Ġeffectively": 5350,
      "Ġcrew": 5351,
      "Ġgreatly": 5352,
      "Ġerr": 5353,
      "ipped": 5354,
      "Ġfamiliar": 5355,
      "Ġadopted": 5356,
      "Ġlatest": 5357,
      "My": 5358,
      "Our": 5359,
      "such": 5360,
      "wood": 5361,
      "heast": 5362,
      "inity": 5363,
      "iced": 5364,
      "ĠBoth": 5365,
      "Ġheight": 5366,
      "enses": 5367,
      "clusion": 5368,
      "ognitive": 5369,
      "Ġrelevant": 5370,
      "idden": 5371,
      "Ġexperiences": 5372,
      "Ġprocedures": 5373,
      "Ġsurrounding": 5374,
      "Ġharvest": 5375,
      "Ind": 5376,
      "Note": 5377,
      "ca": 5378,
      "ita": 5379,
      "Ġnine": 5380,
      "ĠImp": 5381,
      "ĠLibrary": 5382,
      "Ġdiscipl": 5383,
      "Ġagency": 5384,
      "Ġdepending": 5385,
      "Ġpractical": 5386,
      "Ġperiods": 5387,
      "Ġ1980": 5388,
      "Ġanswers": 5389,
      "Ġecosystem": 5390,
      "Ġpregnant": 5391,
      "Ġencourage": 5392,
      "Ġdestroyed": 5393,
      "Ġkidney": 5394,
      "Ġneighbor": 5395,
      "CO": 5396,
      "During": 5397,
      "bi": 5398,
      "ship": 5399,
      "Ġcards": 5400,
      "Ġpaid": 5401,
      "Ġgun": 5402,
      "otic": 5403,
      "ĠDan": 5404,
      "ĠLet": 5405,
      "oking": 5406,
      "Ġ300": 5407,
      "rows": 5408,
      "cling": 5409,
      "rapy": 5410,
      "Ġprevention": 5411,
      "ictionary": 5412,
      "Ġenemy": 5413,
      "DF": 5414,
      "kins": 5415,
      "Ġthin": 5416,
      "Ġaren": 5417,
      "ĠWord": 5418,
      "ĠLincoln": 5419,
      "Ġproducing": 5420,
      "ieties": 5421,
      "Ġexplains": 5422,
      "Ġmarriage": 5423,
      "Ġfunding": 5424,
      "Ġclaims": 5425,
      "Ġaccepted": 5426,
      "Ġroute": 5427,
      "Ġtitle": 5428,
      "ĠMassachusetts": 5429,
      "cons": 5430,
      "yd": 5431,
      "reed": 5432,
      "Ġlik": 5433,
      "ĠPet": 5434,
      "umin": 5435,
      "ĠNatural": 5436,
      "Ġarts": 5437,
      "Ġissued": 5438,
      "ĠCommittee": 5439,
      "ifying": 5440,
      "Ġhappened": 5441,
      "Ġexistence": 5442,
      "Ġconnected": 5443,
      "Ġfluid": 5444,
      "Ġsatell": 5445,
      "Ġmolecules": 5446,
      "ocratic": 5447,
      "ĠProfessor": 5448,
      "34": 5449,
      "39": 5450,
      "van": 5451,
      "Ġbud": 5452,
      "ĠSuch": 5453,
      "ĠBas": 5454,
      "ĠOld": 5455,
      "Ġmedications": 5456,
      "Ġlaun": 5457,
      "Ġmeasurements": 5458,
      "ĠMichael": 5459,
      "heimer": 5460,
      "37": 5461,
      "Te": 5462,
      "Ã¡": 5463,
      "itud": 5464,
      "road": 5465,
      "ompl": 5466,
      "ĠNav": 5467,
      "ework": 5468,
      "Ġapparent": 5469,
      "ĠStand": 5470,
      "Ġcommit": 5471,
      "Ġtwice": 5472,
      "Ġsche": 5473,
      "Ġtypical": 5474,
      "Ġclosely": 5475,
      "ĠCanadian": 5476,
      "Ġsurvive": 5477,
      "Ġconcentration": 5478,
      "Ġdouble": 5479,
      "500": 5480,
      "De": 5481,
      "ooth": 5482,
      "point": 5483,
      "war": 5484,
      "Ġaccomp": 5485,
      "Ġdefe": 5486,
      "Ġexplained": 5487,
      "Ġadvoc": 5488,
      "Ġtried": 5489,
      "Ġkeeping": 5490,
      "Ġviews": 5491,
      "Ġmulti": 5492,
      "Ġmechanism": 5493,
      "Ġhydrogen": 5494,
      "ĠCarolina": 5495,
      "Ġcrisis": 5496,
      "den": 5497,
      "Ġbatter": 5498,
      "Ġbrief": 5499,
      "ĠMill": 5500,
      "atever": 5501,
      "Ġvul": 5502,
      "Ġintellect": 5503,
      "Ġresist": 5504,
      "ĠStat": 5505,
      "oven": 5506,
      "Ġseek": 5507,
      "Ġgrown": 5508,
      "Ġexplan": 5509,
      "iodiversity": 5510,
      "Ġinterests": 5511,
      "Ġera": 5512,
      "Ġreplaced": 5513,
      "Ġdogs": 5514,
      "Ġvegetables": 5515,
      "Ġcrops": 5516,
      "Ġconflict": 5517,
      "Ġdespite": 5518,
      "Ġmembrane": 5519,
      "ĠEmpire": 5520,
      "88": 5521,
      "AD": 5522,
      "long": 5523,
      "vi": 5524,
      "iner": 5525,
      "stream": 5526,
      "ĠSou": 5527,
      "ĠMark": 5528,
      "iest": 5529,
      "ĠBen": 5530,
      "ĠHospital": 5531,
      "ĠEconom": 5532,
      "Ġselection": 5533,
      "Ġsubsequ": 5534,
      "Ġhelping": 5535,
      "Ġminim": 5536,
      "Ġpossibility": 5537,
      "comp": 5538,
      "Ġpolitics": 5539,
      "Another": 5540,
      "Ġmountain": 5541,
      "ING": 5542,
      "Ġpermanent": 5543,
      "HO": 5544,
      "Ġpull": 5545,
      "alian": 5546,
      "icon": 5547,
      "oto": 5548,
      "ocation": 5549,
      "ansion": 5550,
      "ĠOcean": 5551,
      "Ġclosed": 5552,
      "Ġunless": 5553,
      "Ġinfected": 5554,
      "ĠSte": 5555,
      "ĠAnother": 5556,
      "Ġleads": 5557,
      "Ġprotected": 5558,
      "Ġ1995": 5559,
      "Ġ1997": 5560,
      "Ġdebate": 5561,
      "Ġsurvival": 5562,
      "orph": 5563,
      "Ġfit": 5564,
      "Ġdrought": 5565,
      "ĠPers": 5566,
      "Ġcomment": 5567,
      "Ġabuse": 5568,
      "earchers": 5569,
      "uality": 5570,
      "athy": 5571,
      "Ġworldwide": 5572,
      "Ġsignal": 5573,
      "Ġfacts": 5574,
      "ĠSpanish": 5575,
      "Ġgoods": 5576,
      "Ġcontrols": 5577,
      "ĠTherefore": 5578,
      "ĠFrancisc": 5579,
      "DP": 5580,
      "Gen": 5581,
      "Last": 5582,
      "Ã¶": 5583,
      "Ġtail": 5584,
      "inction": 5585,
      "Ġflex": 5586,
      "Ġinher": 5587,
      "Ġhus": 5588,
      "vert": 5589,
      "irds": 5590,
      "amily": 5591,
      "ĠRad": 5592,
      "ansas": 5593,
      "Ġjur": 5594,
      "Ġphr": 5595,
      "Ġexpressed": 5596,
      "Ġdecline": 5597,
      "Ġgenerate": 5598,
      "Ġconcerns": 5599,
      "Ġtumor": 5600,
      "sembly": 5601,
      "ioxide": 5602,
      "49": 5603,
      "bing": 5604,
      "eper": 5605,
      "Ġtons": 5606,
      "Ġcart": 5607,
      "anic": 5608,
      "Ġinner": 5609,
      "Ġmice": 5610,
      "Ġdut": 5611,
      "irty": 5612,
      "Ġanx": 5613,
      "ifies": 5614,
      "iform": 5615,
      "ĠBi": 5616,
      "Ġchann": 5617,
      "ĠThose": 5618,
      "Ġuniverse": 5619,
      "Ġindex": 5620,
      "Ġfloor": 5621,
      "exp": 5622,
      "Ġidentity": 5623,
      "Ġreactions": 5624,
      "Ġsounds": 5625,
      "Ġthousand": 5626,
      "ĠGrand": 5627,
      "Ġtransmission": 5628,
      "Ġemotional": 5629,
      "Ġmist": 5630,
      "olve": 5631,
      "ĠAtt": 5632,
      "abil": 5633,
      "Ġspend": 5634,
      "Ġunlike": 5635,
      "Ġmode": 5636,
      "Ġextract": 5637,
      "ĠAdminist": 5638,
      "Ġlimits": 5639,
      "Ġpotentially": 5640,
      "Ġappearance": 5641,
      "Ġcalcium": 5642,
      "Ġcolleagues": 5643,
      "ĠControl": 5644,
      "Ġinsects": 5645,
      "Ġplatform": 5646,
      "31": 5647,
      "Dr": 5648,
      "Ġath": 5649,
      "reci": 5650,
      "Ġbed": 5651,
      "Ġbrown": 5652,
      "Ġfold": 5653,
      "Ġdaughter": 5654,
      "ĠAri": 5655,
      "raw": 5656,
      "abled": 5657,
      "acher": 5658,
      "ĠDi": 5659,
      "ĠFort": 5660,
      "ĠNations": 5661,
      "cience": 5662,
      "venue": 5663,
      "Ġowners": 5664,
      "Ġlands": 5665,
      "Ġdeliver": 5666,
      "ercury": 5667,
      "Ġcritic": 5668,
      "Ġdomestic": 5669,
      "Ġjoined": 5670,
      "aturally": 5671,
      "Ġfossil": 5672,
      "Ġexcellent": 5673,
      "http": 5674,
      "matic": 5675,
      "zheimer": 5676,
      "Â·": 5677,
      "Ġ#": 5678,
      "erals": 5679,
      "Ġinject": 5680,
      "ĠBible": 5681,
      "ivation": 5682,
      "agers": 5683,
      "riculum": 5684,
      "ropical": 5685,
      "ĠArctic": 5686,
      "Ġfewer": 5687,
      "ĠSciences": 5688,
      "Ġviolence": 5689,
      "Ġhouses": 5690,
      "CS": 5691,
      "cher": 5692,
      "nic": 5693,
      "uable": 5694,
      "inant": 5695,
      "itter": 5696,
      "Ġtoler": 5697,
      "asks": 5698,
      "ĠPenn": 5699,
      "ĠHall": 5700,
      "ogle": 5701,
      "ogue": 5702,
      "ĠUK": 5703,
      "ĠJose": 5704,
      "peror": 5705,
      "Ġarms": 5706,
      "Ġimpossible": 5707,
      "Ġflight": 5708,
      "Ġphotograph": 5709,
      "Ġinjuries": 5710,
      "ĠHistor": 5711,
      "Ġpictures": 5712,
      "ĠColumbia": 5713,
      "76": 5714,
      "BN": 5715,
      "Ġpig": 5716,
      "ario": 5717,
      "ston": 5718,
      "Ġvital": 5719,
      "Ġchain": 5720,
      "ĠLab": 5721,
      "Ġweap": 5722,
      "ĠJud": 5723,
      "Ġadding": 5724,
      "Ġassistance": 5725,
      "Ġelectron": 5726,
      "Ġ1970": 5727,
      "Ġobservations": 5728,
      "Ġvehicles": 5729,
      "Ġmentioned": 5730,
      "Ġconventional": 5731,
      "eor": 5732,
      "no": 5733,
      "ya": 5734,
      "Ġoption": 5735,
      "eroid": 5736,
      "icks": 5737,
      "Ġepidem": 5738,
      "ĠIran": 5739,
      "ategy": 5740,
      "ĠFre": 5741,
      "ĠRome": 5742,
      "Ġaccompl": 5743,
      "Ġpoet": 5744,
      "Ġdecade": 5745,
      "Ġexamine": 5746,
      "Ġstrategy": 5747,
      "Ġslaves": 5748,
      "Ġbiology": 5749,
      "Ġauthorities": 5750,
      "Ġindicates": 5751,
      "Ġportion": 5752,
      "Ġsick": 5753,
      "Ġlibrary": 5754,
      "ĠAp": 5755,
      "Ġstated": 5756,
      "ulin": 5757,
      "tery": 5758,
      "Ġtransform": 5759,
      "ĠAlzheimer": 5760,
      "Ġrequest": 5761,
      "Ġminimum": 5762,
      "Ġphotos": 5763,
      "Ġdiscussed": 5764,
      "Ġlayers": 5765,
      "Ġsubstance": 5766,
      "ĠSecond": 5767,
      "Ġremaining": 5768,
      "Ġindependence": 5769,
      "ĠParis": 5770,
      "Ġcouple": 5771,
      "greg": 5772,
      "Ġborder": 5773,
      "Ġing": 5774,
      "cture": 5775,
      "Ġnarrow": 5776,
      "ĠTimes": 5777,
      "ada": 5778,
      "osm": 5779,
      "osal": 5780,
      "ĠDar": 5781,
      "ĠEvery": 5782,
      "Ġsports": 5783,
      "Ġprem": 5784,
      "Ġvisible": 5785,
      "Ġpossess": 5786,
      "Ġguidelines": 5787,
      "Ġswim": 5788,
      "ĠFrank": 5789,
      "Ġapart": 5790,
      "Ġimmediate": 5791,
      "Ġprecise": 5792,
      "Ġsequence": 5793,
      "Ġwonder": 5794,
      "Ġopinion": 5795,
      "Cont": 5796,
      "ki": 5797,
      "liam": 5798,
      "Ġinhib": 5799,
      "Ġlas": 5800,
      "ĠAM": 5801,
      "ĠPan": 5802,
      "quit": 5803,
      "Ġrelation": 5804,
      "Ġnoise": 5805,
      "Ġextensive": 5806,
      "Ġsolutions": 5807,
      "comes": 5808,
      "Ġlegs": 5809,
      "Ġbroken": 5810,
      "Ġrecognize": 5811,
      "aska": 5812,
      "ascular": 5813,
      "Ġforests": 5814,
      "Ġcomponent": 5815,
      "Ġtouch": 5816,
      "allel": 5817,
      "avery": 5818,
      "rep": 5819,
      "isters": 5820,
      "ctive": 5821,
      "stood": 5822,
      "celer": 5823,
      "ĠIll": 5824,
      "using": 5825,
      "ĠFree": 5826,
      "Ġcontribute": 5827,
      "Ġunknown": 5828,
      "Ġoutl": 5829,
      "Ġraise": 5830,
      "Ġobtained": 5831,
      "Ġoperate": 5832,
      "Ġelev": 5833,
      "ĠReview": 5834,
      "Ġcertainly": 5835,
      "Ġdescribes": 5836,
      "Ġfeeling": 5837,
      "ĠReport": 5838,
      "Ġurban": 5839,
      "Ġhorse": 5840,
      "Ġaccurate": 5841,
      "Ġfigures": 5842,
      "47": 5843,
      "Ġreject": 5844,
      "ĠTer": 5845,
      "eline": 5846,
      "add": 5847,
      "ĠPost": 5848,
      "emia": 5849,
      "Ġseed": 5850,
      "Ġshared": 5851,
      "Ġallerg": 5852,
      "Ġmedic": 5853,
      "Ġmainly": 5854,
      "rison": 5855,
      "Ġcircumst": 5856,
      "cyclopedia": 5857,
      "Ġequivalent": 5858,
      "65": 5859,
      "En": 5860,
      "ny": 5861,
      "erior": 5862,
      "Ġsail": 5863,
      "Ġsuc": 5864,
      "Ġvoice": 5865,
      "Ġchromos": 5866,
      "Ġperce": 5867,
      "Ġjour": 5868,
      "ificial": 5869,
      "Ġsurve": 5870,
      "Ġhelpful": 5871,
      "Ġinterview": 5872,
      "hips": 5873,
      "Ġelected": 5874,
      "Ġpossibly": 5875,
      "ĠManagement": 5876,
      "dden": 5877,
      "Ġcredit": 5878,
      "Ġdoubt": 5879,
      "inent": 5880,
      "rete": 5881,
      "Ġsan": 5882,
      "Ġwave": 5883,
      "Ġdioxide": 5884,
      "ĠHol": 5885,
      "ĠGr": 5886,
      "ĠStar": 5887,
      "Ġsole": 5888,
      "luding": 5889,
      "Ġchildhood": 5890,
      "Ġsurf": 5891,
      "Ġsubs": 5892,
      "Ġperspective": 5893,
      "Ġresulted": 5894,
      "Ġcareer": 5895,
      "Ġmarked": 5896,
      "Ġimmun": 5897,
      "Ġslowly": 5898,
      "Ġbeautiful": 5899,
      "ĠDirector": 5900,
      "ĠVictor": 5901,
      "eenth": 5902,
      "from": 5903,
      "rey": 5904,
      "atically": 5905,
      "Ġcert": 5906,
      "Ġlies": 5907,
      "ĠIr": 5908,
      "ĠMo": 5909,
      "ĠBook": 5910,
      "Ġrural": 5911,
      "ĠNature": 5912,
      "Ġrecovery": 5913,
      "Ġroll": 5914,
      "Ġideal": 5915,
      "Ġadministration": 5916,
      "Ġgirls": 5917,
      "Ġsediment": 5918,
      "48": 5919,
      "IA": 5920,
      "hma": 5921,
      "Ġaqu": 5922,
      "indu": 5923,
      "ancing": 5924,
      "sts": 5925,
      "ĠTit": 5926,
      "othe": 5927,
      "ĠBC": 5928,
      "ĠHome": 5929,
      "ĠRem": 5930,
      "ĠNorthern": 5931,
      "oston": 5932,
      "igned": 5933,
      "Ġintervention": 5934,
      "Ġmedium": 5935,
      "Ġdepends": 5936,
      "Ġdepression": 5937,
      "Ġlanguages": 5938,
      "Ġsensitive": 5939,
      "Ġtells": 5940,
      "ĠAustralian": 5941,
      "Ġcooling": 5942,
      "Ġvehicle": 5943,
      "Ġvessels": 5944,
      "Ġphilosophy": 5945,
      "Ġkilomet": 5946,
      "Ġpretty": 5947,
      "46": 5948,
      "UN": 5949,
      "free": 5950,
      "field": 5951,
      "zil": 5952,
      "Ġcrow": 5953,
      "ĠPM": 5954,
      "ĠBet": 5955,
      "Ġsudden": 5956,
      "ĠWell": 5957,
      "ĠEnd": 5958,
      "Ġspin": 5959,
      "Ġmanip": 5960,
      "oved": 5961,
      "ĠYet": 5962,
      "Ġsimpl": 5963,
      "Ġoccasion": 5964,
      "Ġbreeding": 5965,
      "Ġdeaths": 5966,
      "Ġfocused": 5967,
      "Ġentirely": 5968,
      "Ġintroduction": 5969,
      "hyth": 5970,
      "ĠRevolution": 5971,
      "Ġcomprehensive": 5972,
      "liament": 5973,
      "ii": 5974,
      "mas": 5975,
      "rine": 5976,
      "sen": 5977,
      "rem": 5978,
      "Ġpray": 5979,
      "Ġmaster": 5980,
      "oti": 5981,
      "ĠMac": 5982,
      "oples": 5983,
      "Ġadequ": 5984,
      "Ġclick": 5985,
      "erves": 5986,
      "obe": 5987,
      "Ġregional": 5988,
      "Ġscan": 5989,
      "Ġsupposed": 5990,
      "Ġstudying": 5991,
      "vironments": 5992,
      "ĠClass": 5993,
      "Ġopened": 5994,
      "Ġprompt": 5995,
      "Ġlisted": 5996,
      "Ġearthqu": 5997,
      "ĠGlobal": 5998,
      "IP": 5999,
      "LE": 6000,
      "born": 6001,
      "gov": 6002,
      "under": 6003,
      "Ġ<": 6004,
      "Ġdiversity": 6005,
      "racy": 6006,
      "ĠBur": 6007,
      "Ġabnormal": 6008,
      "ĠOh": 6009,
      "Ġparties": 6010,
      "Ġacts": 6011,
      "Ġindeed": 6012,
      "Ġ500": 6013,
      "Ġglass": 6014,
      "Stud": 6015,
      "ĠAbout": 6016,
      "Ġscholars": 6017,
      "Ġprinciple": 6018,
      "ĠInstead": 6019,
      "gments": 6020,
      "run": 6021,
      "Ġcrim": 6022,
      "Ġthr": 6023,
      "Ġlose": 6024,
      "ĠTw": 6025,
      "ĠPop": 6026,
      "ĠFurther": 6027,
      "ĠNor": 6028,
      "ipal": 6029,
      "Ġbutter": 6030,
      "Ġrecip": 6031,
      "Ġagencies": 6032,
      "Ġobtain": 6033,
      "Ġrefers": 6034,
      "ĠAnn": 6035,
      "Ġplaying": 6036,
      "Ġjoin": 6037,
      ".||": 6038,
      "icide": 6039,
      "Ġgrass": 6040,
      "Ġ1960": 6041,
      "Ġburning": 6042,
      "ĠUsing": 6043,
      "Ġcandid": 6044,
      "Ġmerely": 6045,
      "Ġlaunched": 6046,
      "Ġvulner": 6047,
      "99": 6048,
      "EP": 6049,
      "Rec": 6050,
      "ait": 6051,
      "called": 6052,
      "Ġcatch": 6053,
      "Ġmur": 6054,
      "Ġdream": 6055,
      "Ġnaturally": 6056,
      "ĠAgency": 6057,
      "ĠProp": 6058,
      "ĠDel": 6059,
      "ĠNat": 6060,
      "ureau": 6061,
      "ĠLong": 6062,
      "alls": 6063,
      "Ġunus": 6064,
      "Ġsomewhat": 6065,
      "Ġdepos": 6066,
      "Why": 6067,
      "ĠGuide": 6068,
      "rastructure": 6069,
      "Ġaudio": 6070,
      "Ġdecrease": 6071,
      "Ġinstrument": 6072,
      "gu": 6073,
      "ih": 6074,
      "lar": 6075,
      "Ġpark": 6076,
      "anc": 6077,
      "roat": 6078,
      "Ġgone": 6079,
      "raction": 6080,
      "irt": 6081,
      "Ġcomments": 6082,
      "ĠLike": 6083,
      "Ġgenerated": 6084,
      "Ġfollows": 6085,
      "Ġcourses": 6086,
      "Ġcarefully": 6087,
      "Ġmarried": 6088,
      "Ġsuccessfully": 6089,
      "Ġfacilit": 6090,
      "ĠOnly": 6091,
      "Ġsentence": 6092,
      "Ġdivision": 6093,
      "Ġpowers": 6094,
      "ĠAtlantic": 6095,
      "ĠKorea": 6096,
      "CT": 6097,
      "cription": 6098,
      "Ġsections": 6099,
      "Ġlake": 6100,
      "uter": 6101,
      "Ġstock": 6102,
      "ĠBudd": 6103,
      "Ġneck": 6104,
      "Ġworse": 6105,
      "anged": 6106,
      "Ġrail": 6107,
      "Ġexpansion": 6108,
      "Ġfounded": 6109,
      "Ġlocations": 6110,
      "ĠExp": 6111,
      "while": 6112,
      "Ġnecessarily": 6113,
      "ĠGoogle": 6114,
      "Ġparticipate": 6115,
      "Ġinteraction": 6116,
      "Ġdriving": 6117,
      "Ġregularly": 6118,
      "Ġleadership": 6119,
      "Ġargument": 6120,
      "Ġfertil": 6121,
      "opyright": 6122,
      "ivery": 6123,
      "Ġmand": 6124,
      "Ġmort": 6125,
      "ola": 6126,
      "Ġprove": 6127,
      "ĠPub": 6128,
      "ĠBre": 6129,
      "Ġcomfort": 6130,
      "ĠData": 6131,
      "Ġchosen": 6132,
      "ĠNative": 6133,
      "ĠUt": 6134,
      "Ġdoor": 6135,
      "Ġmanaged": 6136,
      "ensions": 6137,
      "Ġinvent": 6138,
      "Ġmetab": 6139,
      "Ġrepresented": 6140,
      "Ġresponses": 6141,
      "Ġemployment": 6142,
      "Ġmechanisms": 6143,
      "ulsion": 6144,
      "Ġprepare": 6145,
      "Ġawareness": 6146,
      "Ġspiritual": 6147,
      "html": 6148,
      "Ġhusband": 6149,
      "86": 6150,
      "May": 6151,
      "produ": 6152,
      "rus": 6153,
      "ĠTime": 6154,
      "ĠTHE": 6155,
      "ĠSol": 6156,
      "ĠIV": 6157,
      "Ġenvironments": 6158,
      "ricts": 6159,
      "teen": 6160,
      "Ġpoison": 6161,
      "Ġsubm": 6162,
      "Ġinstruction": 6163,
      "ĠConst": 6164,
      "Ġmyth": 6165,
      "ĠForce": 6166,
      "ĠExper": 6167,
      "ĠStudies": 6168,
      "Ġcaptured": 6169,
      "Ġcoastal": 6170,
      "Ġsoldiers": 6171,
      "Ġconsequences": 6172,
      "Ġsituations": 6173,
      "Pe": 6174,
      "upp": 6175,
      "icians": 6176,
      "leton": 6177,
      "Ġstret": 6178,
      "Ġalg": 6179,
      "ĠEp": 6180,
      "outs": 6181,
      "âĢĿ,": 6182,
      "Ġappreci": 6183,
      "Ġblog": 6184,
      "Ġtrad": 6185,
      "ĠAny": 6186,
      "ĠIndians": 6187,
      "Ġconfir": 6188,
      "Ġnearby": 6189,
      "azine": 6190,
      "Ġrevealed": 6191,
      "ĠValley": 6192,
      "Ġintellectual": 6193,
      "55": 6194,
      "Pl": 6195,
      "rative": 6196,
      "ss": 6197,
      "Ġtall": 6198,
      "Ġcup": 6199,
      "Ġfill": 6200,
      "Ġnest": 6201,
      "ĠCat": 6202,
      "Ġstorm": 6203,
      "ĠMi": 6204,
      "ĠBrown": 6205,
      "ĠRob": 6206,
      "ĠLand": 6207,
      "Ġabund": 6208,
      "Ġcomposition": 6209,
      "Ġscene": 6210,
      "Ġreform": 6211,
      "Ġlesson": 6212,
      "Ġstanding": 6213,
      "Ġphoto": 6214,
      "Ġdiagnosed": 6215,
      "Ġantibiot": 6216,
      "Ġsector": 6217,
      "BS": 6218,
      "Med": 6219,
      "Re": 6220,
      "Since": 6221,
      "uous": 6222,
      "inos": 6223,
      "Ġble": 6224,
      "asure": 6225,
      "Ġhun": 6226,
      "Ġprohib": 6227,
      "ĠPol": 6228,
      "ĠBa": 6229,
      "ĠDiv": 6230,
      "Ġmanage": 6231,
      "weight": 6232,
      "Ġextended": 6233,
      "Ġentered": 6234,
      "Ġshell": 6235,
      "Ġstring": 6236,
      "Ġrising": 6237,
      "Ġmatters": 6238,
      "Ġfacility": 6239,
      "Ġsoul": 6240,
      "Ġmolecular": 6241,
      "Ġcloser": 6242,
      "Ġbudget": 6243,
      "Ġingred": 6244,
      "Se": 6245,
      "bar": 6246,
      "bra": 6247,
      "Ġwid": 6248,
      "Ġwitness": 6249,
      "organ": 6250,
      "Ġfract": 6251,
      "Ġmoon": 6252,
      "ighter": 6253,
      "ĠGulf": 6254,
      "Ġenable": 6255,
      "ĠStreet": 6256,
      "Ġcommitted": 6257,
      "ĠVer": 6258,
      "Ġacceler": 6259,
      "Ġformal": 6260,
      "Ġdefects": 6261,
      "Ġeditor": 6262,
      "Ġknows": 6263,
      "Ġsets": 6264,
      "arsh": 6265,
      "Ġrivers": 6266,
      "Ġhoriz": 6267,
      "Ġhypothes": 6268,
      "Ġwalking": 6269,
      "ĠSpecial": 6270,
      "ĠColorado": 6271,
      "ĠSouthern": 6272,
      "flow": 6273,
      "oir": 6274,
      "zed": 6275,
      "Ġaw": 6276,
      "inn": 6277,
      "esis": 6278,
      "ican": 6279,
      "Ġgender": 6280,
      "ĠPeter": 6281,
      "ĠDisc": 6282,
      "earing": 6283,
      "Ġimper": 6284,
      "Ġrow": 6285,
      "Ġamb": 6286,
      "Ġdefense": 6287,
      "Ġengage": 6288,
      "ĠSea": 6289,
      "Ġopening": 6290,
      "ymph": 6291,
      "Ġyounger": 6292,
      "ĠMaryland": 6293,
      "Ġmobile": 6294,
      "Ġcamera": 6295,
      "Ġframework": 6296,
      "Ġdiscrimination": 6297,
      "pread": 6298,
      "Ġcognitive": 6299,
      "Ġhem": 6300,
      "Ġresidents": 6301,
      "Ġages": 6302,
      "Ġcenters": 6303,
      "idespread": 6304,
      "Ġsupports": 6305,
      "Ġvaluable": 6306,
      "Ġdelivery": 6307,
      "Ġspacecraft": 6308,
      "ĠConservation": 6309,
      "ĠBoard": 6310,
      "Ġcarrying": 6311,
      "Ġultimately": 6312,
      "Ġagriculture": 6313,
      "Ġhunting": 6314,
      "Ġcontemporary": 6315,
      "Ġinflammation": 6316,
      ".'": 6317,
      "?\"": 6318,
      "CL": 6319,
      "gs": 6320,
      "host": 6321,
      "mond": 6322,
      "rint": 6323,
      "Ġax": 6324,
      "Ġmild": 6325,
      "Ġnose": 6326,
      "ifest": 6327,
      "ĠBoston": 6328,
      "Ġneur": 6329,
      "Ġneither": 6330,
      "ĠRoyal": 6331,
      "ags": 6332,
      "Ġgravity": 6333,
      "ployment": 6334,
      "Ġgrew": 6335,
      "Ġholding": 6336,
      "Ġdeclared": 6337,
      "ĠBrazil": 6338,
      "Ġfalse": 6339,
      "Ġlandscape": 6340,
      "ĠFrancisco": 6341,
      "Do": 6342,
      "car": 6343,
      "Ġaward": 6344,
      "Ġft": 6345,
      "Ġfasc": 6346,
      "ĠSaf": 6347,
      "adel": 6348,
      "ĠMicro": 6349,
      "isted": 6350,
      "rier": 6351,
      "ĠStep": 6352,
      "ĠChic": 6353,
      "Ġregul": 6354,
      "Ġremote": 6355,
      "Ġfoundation": 6356,
      "Ġdepartment": 6357,
      "Ġminute": 6358,
      "Ġseconds": 6359,
      "Ġconsumers": 6360,
      "Ġwindow": 6361,
      "ĠGeorg": 6362,
      "ĠSecret": 6363,
      "ĠAgricult": 6364,
      "copation": 6365,
      "Ġarrived": 6366,
      "Ġhazard": 6367,
      "05": 6368,
      "Not": 6369,
      "Ġtank": 6370,
      "arant": 6371,
      "Ġles": 6372,
      "ĠTim": 6373,
      "ĠWik": 6374,
      "ĠGood": 6375,
      "ibilities": 6376,
      "Ġinches": 6377,
      "ults": 6378,
      "ishop": 6379,
      "Ġpeoples": 6380,
      "Ġagents": 6381,
      "Ġdefend": 6382,
      "anguage": 6383,
      "Ġdifficulty": 6384,
      "Ġstruggle": 6385,
      "aj": 6386,
      "aud": 6387,
      "eers": 6388,
      "Ġaer": 6389,
      "Ġsight": 6390,
      "Ġpool": 6391,
      "ĠAst": 6392,
      "Ġyield": 6393,
      "anta": 6394,
      "Ġrig": 6395,
      "ĠUSA": 6396,
      "ĠItaly": 6397,
      "Ġobl": 6398,
      "Ġafford": 6399,
      "Ġparallel": 6400,
      "ditional": 6401,
      "ocument": 6402,
      "Ġzero": 6403,
      "Ġemployed": 6404,
      "Ġinteractions": 6405,
      "Ġconsistent": 6406,
      "ĠAlexander": 6407,
      "uilding": 6408,
      "74": 6409,
      "SC": 6410,
      "know": 6411,
      "word": 6412,
      "Ġwish": 6413,
      "ora": 6414,
      "Ġfurn": 6415,
      "Ġmail": 6416,
      "ĠAccess": 6417,
      "ĠEPA": 6418,
      "ĠFace": 6419,
      "Ġplate": 6420,
      "ĠâĢ¦": 6421,
      "Ġcolumn": 6422,
      "Ġaccum": 6423,
      "Ġregulations": 6424,
      "Ġhumidity": 6425,
      "Ġinsurance": 6426,
      "Ġ1994": 6427,
      "Ġdelay": 6428,
      "Ġemployees": 6429,
      "chez": 6430,
      "Ġachieved": 6431,
      "Ġspeaking": 6432,
      "Ġsatis": 6433,
      "ĠWildlife": 6434,
      "ĠAdministration": 6435,
      "Over": 6436,
      "Ġwel": 6437,
      "Ġwire": 6438,
      "Ġfed": 6439,
      "lets": 6440,
      "Ġgather": 6441,
      "igan": 6442,
      "ĠCle": 6443,
      "ĠCamb": 6444,
      "Ġconstit": 6445,
      "ĠMad": 6446,
      "erent": 6447,
      "osc": 6448,
      "Ġrid": 6449,
      "Ġshif": 6450,
      "Ġuns": 6451,
      "Ġscar": 6452,
      "Ġthoughts": 6453,
      "Ġveter": 6454,
      "Ġfrequent": 6455,
      "Ġsuperior": 6456,
      "Ġfighting": 6457,
      "Ġassigned": 6458,
      "Ġconstructed": 6459,
      "burg": 6460,
      "Ġdollars": 6461,
      "ĠDistrict": 6462,
      "Ġsucceed": 6463,
      "Can": 6464,
      "body": 6465,
      "tic": 6466,
      "yth": 6467,
      "Ġdiverse": 6468,
      "asp": 6469,
      "estine": 6470,
      "Ġsuitable": 6471,
      "ĠWil": 6472,
      "ĠDou": 6473,
      "ĠGold": 6474,
      "ĠOs": 6475,
      "Ġunable": 6476,
      "Ġinfrastructure": 6477,
      "Ġpeak": 6478,
      "ĠItalian": 6479,
      "Ġ36": 6480,
      "erman": 6481,
      "Ġmeters": 6482,
      "icted": 6483,
      "Ġsignals": 6484,
      "Ġchest": 6485,
      "Ġexplo": 6486,
      "Ġestimate": 6487,
      "Ġ75": 6488,
      "Ġwriter": 6489,
      "Ġpassage": 6490,
      "Ġcircle": 6491,
      "Ġinvestment": 6492,
      "ĠScott": 6493,
      "Ġgreenhouse": 6494,
      "Ġsuffer": 6495,
      "brew": 6496,
      "Ġestimates": 6497,
      "Ġrarely": 6498,
      "ĠISBN": 6499,
      "Ġenhance": 6500,
      "itudes": 6501,
      "adelph": 6502,
      "\")": 6503,
      "Even": 6504,
      "LL": 6505,
      "MS": 6506,
      "Ġtal": 6507,
      "Ġsought": 6508,
      "esity": 6509,
      "alog": 6510,
      "Ġfilled": 6511,
      "anes": 6512,
      "eters": 6513,
      "ĠMer": 6514,
      "ĠEth": 6515,
      "Ġcovers": 6516,
      "Ġmedication": 6517,
      "Ġdistricts": 6518,
      "Ġentry": 6519,
      "prise": 6520,
      "Ġflower": 6521,
      "Ġnetworks": 6522,
      "Ġcreates": 6523,
      "Ġhistoric": 6524,
      "Ġsuffering": 6525,
      "____": 6526,
      "Ġbullying": 6527,
      "Ġcardi": 6528,
      "Ġderived": 6529,
      "Ġmosquit": 6530,
      "Ġcircumstances": 6531,
      "'d": 6532,
      "gent": 6533,
      "rary": 6534,
      "Ġtaught": 6535,
      "Ġwants": 6536,
      "Ġpou": 6537,
      "Ġpra": 6538,
      "Ġpounds": 6539,
      "Ġrecept": 6540,
      "Ġnone": 6541,
      "Ġnarr": 6542,
      "char": 6543,
      "ĠSand": 6544,
      "ĠCa": 6545,
      "Ġneut": 6546,
      "Ġran": 6547,
      "Ġends": 6548,
      "ĠOut": 6549,
      "Ġcontamin": 6550,
      "Ġ1950": 6551,
      "iana": 6552,
      "ifications": 6553,
      "Ġunderstood": 6554,
      "Ġproduces": 6555,
      "ĠHebrew": 6556,
      "Ġobst": 6557,
      "inking": 6558,
      "Ġsmooth": 6559,
      "Ġgenerations": 6560,
      "Ġowner": 6561,
      "Ġplanned": 6562,
      "Ġhandle": 6563,
      "Ġapproved": 6564,
      "Ġopposed": 6565,
      "Ġdigest": 6566,
      "Ġcompetition": 6567,
      "Ġvaccine": 6568,
      "Ġcluster": 6569,
      "',": 6570,
      "'.": 6571,
      ")|": 6572,
      "Us": 6573,
      "mary": 6574,
      "Ġtips": 6575,
      "rection": 6576,
      "oler": 6577,
      "sey": 6578,
      "adm": 6579,
      "ĠEr": 6580,
      "Ġseat": 6581,
      "Ġintake": 6582,
      "anging": 6583,
      "Ġregist": 6584,
      "Ġtransition": 6585,
      "Ġsecure": 6586,
      "Ġdownload": 6587,
      "arents": 6588,
      "Ġdiam": 6589,
      "Ġimmig": 6590,
      "Ġannounced": 6591,
      "Ġintegrated": 6592,
      "Ġdemonstrated": 6593,
      "ĠConfed": 6594,
      "ĠMartin": 6595,
      "ĠOhio": 6596,
      "02": 6597,
      "87": 6598,
      "fortunately": 6599,
      "gans": 6600,
      "jo": 6601,
      "uh": 6602,
      "ugg": 6603,
      "Ġtheories": 6604,
      "Ġpapers": 6605,
      "Ġbomb": 6606,
      "asters": 6607,
      "urrent": 6608,
      "Ġorient": 6609,
      "Ġwasn": 6610,
      "andon": 6611,
      "ĠOx": 6612,
      "ipedia": 6613,
      "Ġwilling": 6614,
      "Ġcloud": 6615,
      "ĠKnow": 6616,
      "Ġagreed": 6617,
      "ypes": 6618,
      "Ġattend": 6619,
      "ĠAsian": 6620,
      "Ġedition": 6621,
      "Ġpublication": 6622,
      "Ġruns": 6623,
      "Ġinstitution": 6624,
      "ĠSurvey": 6625,
      "ĠPhiladelph": 6626,
      "Ġbehaviors": 6627,
      "Ġtrouble": 6628,
      "Ġterritory": 6629,
      "Ġdedicated": 6630,
      "Ġsatellite": 6631,
      "Ġmedicines": 6632,
      "how": 6633,
      "net": 6634,
      "xts": 6635,
      "Ġtheore": 6636,
      "Ġmaps": 6637,
      "Ġrein": 6638,
      "omach": 6639,
      "ima": 6640,
      "ĠIN": 6641,
      "Ġproof": 6642,
      "ĠMel": 6643,
      "Ġwhatever": 6644,
      "umes": 6645,
      "usal": 6646,
      "Ġoutbre": 6647,
      "Ġconscious": 6648,
      "Ġdecide": 6649,
      "Ġremark": 6650,
      "Ġcurriculum": 6651,
      "Ġplanets": 6652,
      "scale": 6653,
      "Ġmechanical": 6654,
      "Ġfemales": 6655,
      "Ġdemonstrate": 6656,
      "ĠParty": 6657,
      "Ġmanufacturing": 6658,
      "ĠObama": 6659,
      "Ġpesticides": 6660,
      "FS": 6661,
      "First": 6662,
      "cre": 6663,
      "hand": 6664,
      "ĠÃ": 6665,
      "Ġwidespread": 6666,
      "Ġtomat": 6667,
      "ĠSup": 6668,
      "Ġ(\"": 6669,
      "ocial": 6670,
      "acts": 6671,
      "Ġuniversity": 6672,
      "Ġpreced": 6673,
      "ĠKansas": 6674,
      "ails": 6675,
      "angered": 6676,
      "Ġdistur": 6677,
      "Ġprotocol": 6678,
      "Ġ1992": 6679,
      "ĠResources": 6680,
      "Ġaccessible": 6681,
      "Ġputting": 6682,
      "Ġzone": 6683,
      "Ġatmospheric": 6684,
      "Ġsweet": 6685,
      "Ġmathematics": 6686,
      "ĠDisease": 6687,
      "Ġathlet": 6688,
      "ĠJoseph": 6689,
      "hythm": 6690,
      "Because": 6691,
      "CR": 6692,
      "Ġ*": 6693,
      "orous": 6694,
      "Ġpus": 6695,
      "Ġmm": 6696,
      "Ġbear": 6697,
      "Ġongoing": 6698,
      "ĠPlease": 6699,
      "occ": 6700,
      "ocracy": 6701,
      "Ġseeds": 6702,
      "ĠLu": 6703,
      "ĠLib": 6704,
      "Ġkit": 6705,
      "Ġcomposed": 6706,
      "Ġundert": 6707,
      "Ġassume": 6708,
      "Ġcars": 6709,
      "Ġcommunicate": 6710,
      "Ġscientist": 6711,
      "Ġnegoti": 6712,
      "Ġaccounts": 6713,
      "Ġconcentrations": 6714,
      "ĠÂ©": 6715,
      "Ġinstruments": 6716,
      "ĠLearning": 6717,
      "commun": 6718,
      "44": 6719,
      "95": 6720,
      "TS": 6721,
      "hist": 6722,
      "yr": 6723,
      "Ġske": 6724,
      "Ġbio": 6725,
      "leg": 6726,
      "ĠTop": 6727,
      "imens": 6728,
      "ether": 6729,
      "Ġforth": 6730,
      "Ġstages": 6731,
      "ĠBig": 6732,
      "ĠDet": 6733,
      "Ġring": 6734,
      "ĠNov": 6735,
      "Ġabandon": 6736,
      "eck": 6737,
      "Ġresident": 6738,
      "reek": 6739,
      "erted": 6740,
      "Ġflo": 6741,
      "Ġinterior": 6742,
      "ĠWho": 6743,
      "Ġelections": 6744,
      "Ġ1993": 6745,
      "Ġstands": 6746,
      "ĠAdd": 6747,
      "Ġparam": 6748,
      "ĠEncyclopedia": 6749,
      "Ġimproving": 6750,
      "ĠEarly": 6751,
      "ipping": 6752,
      "Ġdebris": 6753,
      "Ġlabel": 6754,
      "Ġvariable": 6755,
      "Ġtalking": 6756,
      "Ġbabies": 6757,
      "Ġprisoners": 6758,
      "Ġescape": 6759,
      "cribed": 6760,
      "ĠWindows": 6761,
      "ĠChicago": 6762,
      "ĠPhiladelphia": 6763,
      "72": 6764,
      "aired": 6765,
      "uels": 6766,
      "Ġtight": 6767,
      "Ġtasks": 6768,
      "orter": 6769,
      "Ġfo": 6770,
      "rovers": 6771,
      "ĠAP": 6772,
      "ĠSar": 6773,
      "ĠPolic": 6774,
      "ĠHoly": 6775,
      "Ġchapter": 6776,
      "orted": 6777,
      "unicip": 6778,
      "ĠThrough": 6779,
      "Ġjump": 6780,
      "Ġtract": 6781,
      "Ġguarant": 6782,
      "Ġengaged": 6783,
      "ĠEngine": 6784,
      "Ġsecondary": 6785,
      "Ġlisten": 6786,
      "Ġofficers": 6787,
      "Ġsubstances": 6788,
      "Ġturning": 6789,
      "Ġratio": 6790,
      "ochond": 6791,
      "ĠVietnam": 6792,
      "Im": 6793,
      "Ġwaves": 6794,
      "Ġnurs": 6795,
      "Ġgained": 6796,
      "Ġgiant": 6797,
      "ĠSat": 6798,
      "Ġalter": 6799,
      "ĠWhere": 6800,
      "ĠRom": 6801,
      "Ġsharing": 6802,
      "ĠKar": 6803,
      "tenance": 6804,
      "Ġremind": 6805,
      "2012": 6806,
      "Ġdrawn": 6807,
      "Ġmarkets": 6808,
      "Ġsignificance": 6809,
      "aimed": 6810,
      "Ġfishing": 6811,
      "Ġtowns": 6812,
      "Ġmessages": 6813,
      "Ġimplementation": 6814,
      "Ġexpanded": 6815,
      "rieved": 6816,
      "species": 6817,
      "Ġgranted": 6818,
      "Ġprofessionals": 6819,
      "rity": 6820,
      "rite": 6821,
      "then": 6822,
      "Ġâ": 6823,
      "Ġille": 6824,
      "hered": 6825,
      "Ġcited": 6826,
      "orrow": 6827,
      "ano": 6828,
      "ĠSil": 6829,
      "ĠEc": 6830,
      "Ġsharp": 6831,
      "asts": 6832,
      "plant": 6833,
      "Ġpref": 6834,
      "Ġ32": 6835,
      "Ġdefic": 6836,
      "Ġartificial": 6837,
      "Ġdepart": 6838,
      "Ġreaders": 6839,
      "Ġplane": 6840,
      "Ġwarning": 6841,
      "Ġdamaged": 6842,
      "Ġcreative": 6843,
      "ĠSyn": 6844,
      "Ġessay": 6845,
      "Ġclaimed": 6846,
      "Ġtissues": 6847,
      "Ġjudge": 6848,
      "Ġroutine": 6849,
      "Ġtumors": 6850,
      "Ġcomparison": 6851,
      "ĠSenate": 6852,
      "Of": 6853,
      "cul": 6854,
      "fish": 6855,
      "ato": 6856,
      "alysis": 6857,
      "Ġgap": 6858,
      "operation": 6859,
      "ĠBill": 6860,
      "ĠExt": 6861,
      "ivated": 6862,
      "Ġabst": 6863,
      "ĠOk": 6864,
      "Ġcontained": 6865,
      "Ġreserved": 6866,
      "Ġoutcome": 6867,
      "Ġproved": 6868,
      "Ġgrade": 6869,
      "Ġsupporting": 6870,
      "ounter": 6871,
      "amps": 6872,
      "Ġpainting": 6873,
      "ymes": 6874,
      "ĠStudy": 6875,
      "Ġcomplicated": 6876,
      "Ġexperimental": 6877,
      "ĠMalays": 6878,
      "ĠNetwork": 6879,
      "People": 6880,
      "ĠFacebook": 6881,
      "43": 6882,
      "Ã³": 6883,
      "real": 6884,
      "Ġsell": 6885,
      "itals": 6886,
      "Ġnode": 6887,
      "ette": 6888,
      "ading": 6889,
      "ĠMain": 6890,
      "ĠMake": 6891,
      "ĠPed": 6892,
      "osion": 6893,
      "ĠDictionary": 6894,
      "Ġshift": 6895,
      "Ġdisk": 6896,
      "Ġresolution": 6897,
      "ĠThough": 6898,
      "Ġteen": 6899,
      "Ġoutcomes": 6900,
      "Ġadds": 6901,
      "everal": 6902,
      "Ġ1996": 6903,
      "Ġholds": 6904,
      "Ġbiggest": 6905,
      "Ġtherapies": 6906,
      "Ġtaxes": 6907,
      "Ġlungs": 6908,
      "Ġbreathing": 6909,
      "ĠLaboratory": 6910,
      "Ġstroke": 6911,
      "Ġsurfaces": 6912,
      "Int": 6913,
      "John": 6914,
      "fts": 6915,
      "pd": 6916,
      "itative": 6917,
      "alm": 6918,
      "ĠSk": 6919,
      "ĠCard": 6920,
      "Ġstomach": 6921,
      "ĠId": 6922,
      "abul": 6923,
      "Ġexchange": 6924,
      "eren": 6925,
      "Ġplays": 6926,
      "ustain": 6927,
      "Ġarray": 6928,
      "Ġarrest": 6929,
      "Ġuniform": 6930,
      "ĠVen": 6931,
      "issipp": 6932,
      "Ġsupplement": 6933,
      "Ġwhereas": 6934,
      "Ġseeing": 6935,
      "Ġsigned": 6936,
      "Ġslavery": 6937,
      "Ġparas": 6938,
      "Ġinvolving": 6939,
      "Ġseemed": 6940,
      "elfare": 6941,
      "ĠPrevention": 6942,
      "Ġaccuracy": 6943,
      "Ġmixed": 6944,
      "Ġcryst": 6945,
      "ĠRichard": 6946,
      "Ġhormone": 6947,
      "Ġerrors": 6948,
      "ĠMiG": 6949,
      "Qu": 6950,
      "iated": 6951,
      "making": 6952,
      "asma": 6953,
      "stone": 6954,
      "Ġgay": 6955,
      "imm": 6956,
      "uts": 6957,
      "Ġdegra": 6958,
      "ptic": 6959,
      "ĠOF": 6960,
      "ĠJac": 6961,
      "Ġdisabilities": 6962,
      "ulty": 6963,
      "Ġmanifest": 6964,
      "ĠVis": 6965,
      "wealth": 6966,
      "Ġfeeding": 6967,
      "Ġtransf": 6968,
      "ĠArts": 6969,
      "ograp": 6970,
      "Ġdescend": 6971,
      "Ġ150": 6972,
      "azing": 6973,
      "Ġdramatic": 6974,
      "gressive": 6975,
      "Ġecological": 6976,
      "IDS": 6977,
      "Ġfruits": 6978,
      "Ġhonor": 6979,
      "Ġfairly": 6980,
      "About": 6981,
      "Ġsubstantial": 6982,
      "Ġmoisture": 6983,
      "Ġlaser": 6984,
      "84": 6985,
      "gical": 6986,
      "Ġtropical": 6987,
      "edu": 6988,
      "Ġthor": 6989,
      "Ġnob": 6990,
      "Ġislands": 6991,
      "urt": 6992,
      "ĠCult": 6993,
      "ami": 6994,
      "Ġorb": 6995,
      "Ġplus": 6996,
      "acters": 6997,
      "Ġintense": 6998,
      "Ġprev": 6999,
      "Ġcommission": 7000,
      "ĠVit": 7001,
      "Ġearn": 7002,
      "Ġboys": 7003,
      "Ġlessons": 7004,
      "Ġconference": 7005,
      "Ġcareful": 7006,
      "Ġrestrict": 7007,
      "Ġopposite": 7008,
      "Ġcriteria": 7009,
      "Ġsteam": 7010,
      "Ġaltitude": 7011,
      "Ġdependent": 7012,
      "Ġconcluded": 7013,
      "Ġrenewable": 7014,
      "Ġquarter": 7015,
      "Ġexplanation": 7016,
      "Ġcriminal": 7017,
      "ĠGeorgia": 7018,
      "71": 7019,
      "98": 7020,
      "National": 7021,
      "dis": 7022,
      "zona": 7023,
      "Ġcaught": 7024,
      "Ġforget": 7025,
      "Ġheating": 7026,
      "Ġchick": 7027,
      "Ġshop": 7028,
      "rous": 7029,
      "Ġdose": 7030,
      "bert": 7031,
      "ishment": 7032,
      "ounded": 7033,
      "Ġcommittee": 7034,
      "ritis": 7035,
      "Ġrocks": 7036,
      "Ġreliable": 7037,
      "hesis": 7038,
      "Ġdirected": 7039,
      "Ġequally": 7040,
      "Ġframe": 7041,
      "Ġinteractive": 7042,
      "Ġmountains": 7043,
      "ĠPrince": 7044,
      "iosity": 7045,
      "Ġharmful": 7046,
      "Ġbegun": 7047,
      "Ġupdated": 7048,
      "Ġarchitecture": 7049,
      "Ġfixed": 7050,
      "igenous": 7051,
      "Ġnewspaper": 7052,
      "Ġphenomenon": 7053,
      "issippi": 7054,
      "OL": 7055,
      "SS": 7056,
      "ĠAff": 7057,
      "Ġstre": 7058,
      "Ġstrict": 7059,
      "eless": 7060,
      "ĠMen": 7061,
      "ivered": 7062,
      "ĠEff": 7063,
      "ĠEastern": 7064,
      "Ġsport": 7065,
      "Ġspaces": 7066,
      "ressive": 7067,
      "Ġtrain": 7068,
      "Ġrelief": 7069,
      "century": 7070,
      "Ġstatements": 7071,
      "Ġartists": 7072,
      "Ġeleph": 7073,
      "Ġfourth": 7074,
      "Ġcombat": 7075,
      "Ġstrongly": 7076,
      "Ġrecognition": 7077,
      "Ġasteroid": 7078,
      "Ġvisitors": 7079,
      "Ġsuffered": 7080,
      "ĠCoast": 7081,
      "Ġsilver": 7082,
      "Ġaims": 7083,
      "Ġcontinuous": 7084,
      "ĠSupreme": 7085,
      "but": 7086,
      "Ġsession": 7087,
      "Ġholes": 7088,
      "omer": 7089,
      "Ġnerve": 7090,
      "ĠBank": 7091,
      "Ġchlor": 7092,
      "Ġcontrovers": 7093,
      "Ġwheat": 7094,
      "ĠKh": 7095,
      "anges": 7096,
      "Ġconserv": 7097,
      "Ġflag": 7098,
      "Ġhealthcare": 7099,
      "Ġseeking": 7100,
      "Ġtechnological": 7101,
      "Ġboat": 7102,
      "Ġservers": 7103,
      "Ġstarts": 7104,
      "raining": 7105,
      "Ġhappening": 7106,
      "Ġchoices": 7107,
      "Ġparticipation": 7108,
      "Ġmoral": 7109,
      "Ġdrawing": 7110,
      "ĠChev": 7111,
      "ĠDesign": 7112,
      "Ġsenior": 7113,
      "ĠConnect": 7114,
      "Ġvictims": 7115,
      "Ġjourney": 7116,
      "AA": 7117,
      "bial": 7118,
      "dor": 7119,
      "po": 7120,
      "Ġtape": 7121,
      "Ġboy": 7122,
      "Ġeld": 7123,
      "ĠSolar": 7124,
      "istent": 7125,
      "ĠHave": 7126,
      "ĠFour": 7127,
      "Ġcancers": 7128,
      "Ġtexts": 7129,
      "Ġpolar": 7130,
      "Ġinterface": 7131,
      "Ġcentre": 7132,
      "Ġedge": 7133,
      "Ġsheet": 7134,
      "ographical": 7135,
      "Ġopposition": 7136,
      "Ġtrip": 7137,
      "print": 7138,
      "ĠJohnson": 7139,
      "Ġbusinesses": 7140,
      "Ġpermission": 7141,
      "ĠSupp": 7142,
      "Ġtransportation": 7143,
      "Ġinterpre": 7144,
      "Ġpanel": 7145,
      "ĠMichigan": 7146,
      "Ġinstructions": 7147,
      "Ġisolated": 7148,
      "Ġnitrogen": 7149,
      "Ġinfluenced": 7150,
      "Ear": 7151,
      "IG": 7152,
      "gon": 7153,
      "iop": 7154,
      "li": 7155,
      "Ġcosm": 7156,
      "Ġfrog": 7157,
      "Ġthym": 7158,
      "Ġlie": 7159,
      "Ġnodes": 7160,
      "utch": 7161,
      "elesc": 7162,
      "Ġorgans": 7163,
      "ĠHo": 7164,
      "achers": 7165,
      "Ġcontents": 7166,
      "eping": 7167,
      "Ġunion": 7168,
      "ologic": 7169,
      "Ġrecover": 7170,
      "phone": 7171,
      "Ġended": 7172,
      "Ġgluc": 7173,
      "ĠIslands": 7174,
      "Ġwriters": 7175,
      "Ġmeasuring": 7176,
      "Ġbelieves": 7177,
      "Ġresearcher": 7178,
      "Ġfeelings": 7179,
      "ĠSuper": 7180,
      "Ġcrack": 7181,
      "Ġcovering": 7182,
      "Ġtribes": 7183,
      "ĠMississippi": 7184,
      "zyme": 7185,
      "Ġunusual": 7186,
      "Ġneurons": 7187,
      "69": 7188,
      "UR": 7189,
      "pet": 7190,
      "Ġaf": 7191,
      "Ġleaf": 7192,
      "Ġ1930": 7193,
      "Ġsupplements": 7194,
      "Ġ400": 7195,
      "ventions": 7196,
      "Ġcorpor": 7197,
      "Ġpassing": 7198,
      "Ġprovider": 7199,
      "Ġcultures": 7200,
      "Ġturns": 7201,
      "ditionally": 7202,
      "Ġassociate": 7203,
      "Ġimprovement": 7204,
      "ucky": 7205,
      "Ġcrime": 7206,
      "ĠMinister": 7207,
      "Ġelsewhere": 7208,
      "Ġethnic": 7209,
      "Ġevaluate": 7210,
      "Ġbehaviour": 7211,
      "stein": 7212,
      "ĠQuebec": 7213,
      "Ġnutrients": 7214,
      "Ġanxiety": 7215,
      "''": 7216,
      "79": 7217,
      "EO": 7218,
      "just": 7219,
      "non": 7220,
      "pos": 7221,
      "inux": 7222,
      "reland": 7223,
      "Ġcats": 7224,
      "Ġfro": 7225,
      "Ġhidden": 7226,
      "omed": 7227,
      "omal": 7228,
      "Ġbeat": 7229,
      "etary": 7230,
      "charge": 7231,
      "Ġstable": 7232,
      "Ġstone": 7233,
      "ĠPo": 7234,
      "Ġexists": 7235,
      "ĠFDA": 7236,
      "Ġplenty": 7237,
      "Ġincl": 7238,
      "Ġcompris": 7239,
      "anger": 7240,
      "Ġtrained": 7241,
      "Ġrepair": 7242,
      "Ġhighlight": 7243,
      "Ġdefine": 7244,
      "Ġdistant": 7245,
      "Ġtreating": 7246,
      "Ġdirectory": 7247,
      "Ġcharacters": 7248,
      "Ġslave": 7249,
      "Ġphysics": 7250,
      "Ġheads": 7251,
      "Ġbeneficial": 7252,
      "Ġvolcan": 7253,
      "Ġtruly": 7254,
      "Ġoptim": 7255,
      "Ġthreatened": 7256,
      "ĠKingdom": 7257,
      "Ġstrike": 7258,
      "Ġlicens": 7259,
      "ĠAvoid": 7260,
      "Ġmammals": 7261,
      "Ġearthquake": 7262,
      "Bl": 7263,
      "gers": 7264,
      "ugh": 7265,
      "Ã¼": 7266,
      "Ġcab": 7267,
      "Ġtooth": 7268,
      "asive": 7269,
      "Ġhab": 7270,
      "ĠTem": 7271,
      "ĠTri": 7272,
      "otes": 7273,
      "ĠSometimes": 7274,
      "Ġconven": 7275,
      "Ġorbit": 7276,
      "abric": 7277,
      "osh": 7278,
      "apor": 7279,
      "uster": 7280,
      "Ġouter": 7281,
      "itely": 7282,
      "Ġexped": 7283,
      "Ġofficer": 7284,
      "Ġprotective": 7285,
      "Ġoptical": 7286,
      "Ġcutting": 7287,
      "prof": 7288,
      "liest": 7289,
      "Ġencouraged": 7290,
      "Ġmagnetic": 7291,
      "Ġlegislation": 7292,
      "Ġmicros": 7293,
      "ĠAngel": 7294,
      "Ġrecycling": 7295,
      "Ġweapons": 7296,
      "42": 7297,
      "fall": 7298,
      "rd": 7299,
      "rants": 7300,
      "rigation": 7301,
      "Ġtor": 7302,
      "Ġahead": 7303,
      "Ġcodes": 7304,
      "Ġpond": 7305,
      "Ġmouse": 7306,
      "ouds": 7307,
      "ĠSaint": 7308,
      "iger": 7309,
      "ĠCamp": 7310,
      "thritis": 7311,
      "ĠPur": 7312,
      "ĠPolit": 7313,
      "riers": 7314,
      "ĠEqu": 7315,
      "ĠGard": 7316,
      "ogether": 7317,
      "Ġdisaster": 7318,
      "soft": 7319,
      "ĠThree": 7320,
      "Ġpartner": 7321,
      "Ġraw": 7322,
      "teb": 7323,
      "Ġunderlying": 7324,
      "Ġacres": 7325,
      "Ġsmoke": 7326,
      "ĠWeek": 7327,
      "Ġvisited": 7328,
      "Ġmaintenance": 7329,
      "ĠAdv": 7330,
      "Ġpositions": 7331,
      "hemical": 7332,
      "Ġinvestigation": 7333,
      "mingb": 7334,
      "Ġarchae": 7335,
      "ĠAmong": 7336,
      "Ġremoval": 7337,
      "Ġkilling": 7338,
      "ĠServices": 7339,
      "Ġcorner": 7340,
      "ĠCurrent": 7341,
      "Ġtoxicity": 7342,
      "Ġinitiative": 7343,
      "Ġdropped": 7344,
      "ĠForest": 7345,
      "Ġaccompan": 7346,
      "Ġvulnerable": 7347,
      "Every": 7348,
      "Your": 7349,
      "ka": 7350,
      "only": 7351,
      "ala": 7352,
      "Ġbiodiversity": 7353,
      "oline": 7354,
      "ĠTor": 7355,
      "ĠTenn": 7356,
      "ĠCop": 7357,
      "ĠClick": 7358,
      "ĠIreland": 7359,
      "amins": 7360,
      "ĠBul": 7361,
      "ĠHung": 7362,
      "emb": 7363,
      "ĠDen": 7364,
      "Ġchair": 7365,
      "Ġlecture": 7366,
      "ĠLo": 7367,
      "allow": 7368,
      "ghan": 7369,
      "pling": 7370,
      "Ġclock": 7371,
      "Ġoverl": 7372,
      "Ġrose": 7373,
      "Ġroads": 7374,
      "Ġanywhere": 7375,
      "Ġpreserve": 7376,
      "Ġcalling": 7377,
      "Ġpatent": 7378,
      "venile": 7379,
      "Ġfinds": 7380,
      "Ġ65": 7381,
      "Ġ1991": 7382,
      "Ġcourts": 7383,
      "Ġpresentation": 7384,
      "Ġexercises": 7385,
      "Ġsteel": 7386,
      "Ġpsychological": 7387,
      "Ġdriven": 7388,
      "Ġmothers": 7389,
      "Ġmachines": 7390,
      "Ġdanger": 7391,
      "Ġexception": 7392,
      "Ġwatershed": 7393,
      "ĠOrganization": 7394,
      "Ġcommitment": 7395,
      "Ġadequate": 7396,
      "Pre": 7397,
      "Per": 7398,
      "Read": 7399,
      "night": 7400,
      "pass": 7401,
      "vard": 7402,
      "Ġ~": 7403,
      "herent": 7404,
      "onia": 7405,
      "ena": 7406,
      "Ġinternet": 7407,
      "Ġdiver": 7408,
      "rolet": 7409,
      "omers": 7410,
      "idance": 7411,
      "ĠAcc": 7412,
      "ady": 7413,
      "Ġaspect": 7414,
      "Ġconclusion": 7415,
      "Ġwhales": 7416,
      "ĠBab": 7417,
      "ĠWood": 7418,
      "ĠList": 7419,
      "Ġenorm": 7420,
      "Ġenforce": 7421,
      "Ġclient": 7422,
      "osex": 7423,
      "ooking": 7424,
      "Ġmodified": 7425,
      "theless": 7426,
      "Ġmatch": 7427,
      "roduction": 7428,
      "Ġdelivered": 7429,
      "Ġhappy": 7430,
      "Ġmoves": 7431,
      "Ġcharacterized": 7432,
      "Ġconsumer": 7433,
      "Ġengineers": 7434,
      "Ġasthma": 7435,
      "Ġregarded": 7436,
      "hyd": 7437,
      "Ġcounsel": 7438,
      "Ġcapture": 7439,
      "Ġattempts": 7440,
      "Ġembry": 7441,
      "Ġimplications": 7442,
      "Ġcopyright": 7443,
      "Ġagreement": 7444,
      "Ġsacr": 7445,
      "Ġcrucial": 7446,
      "Ġbranch": 7447,
      "Ġintelligence": 7448,
      "ovenant": 7449,
      "Ġsubsequent": 7450,
      "ĠArizona": 7451,
      "01": 7452,
      "73": 7453,
      "Cons": 7454,
      "DS": 7455,
      "].": 7456,
      "gression": 7457,
      "Ġcoc": 7458,
      "Ġpit": 7459,
      "Ġlibr": 7460,
      "ĠSym": 7461,
      "ĠIP": 7462,
      "ĠFamily": 7463,
      "Ġrab": 7464,
      "riting": 7465,
      "Ġprovince": 7466,
      "Ġfever": 7467,
      "Ġinstalled": 7468,
      "Ġadvances": 7469,
      "including": 7470,
      "Ġfacing": 7471,
      "Ġrepresentation": 7472,
      "Ġessentially": 7473,
      "Ġconsiderable": 7474,
      "rolled": 7475,
      "Ġconcrete": 7476,
      "Ġnucle": 7477,
      "ĠRetrieved": 7478,
      "ĠNatchez": 7479,
      "App": 7480,
      "CE": 7481,
      "hus": 7482,
      "hav": 7483,
      "tes": 7484,
      "ua": 7485,
      "Ġov": 7486,
      "isk": 7487,
      "Ġlin": 7488,
      "etime": 7489,
      "ĠCare": 7490,
      "Ġconqu": 7491,
      "ĠBureau": 7492,
      "ĠHaw": 7493,
      "Ġvoc": 7494,
      "ĠForm": 7495,
      "Ġspir": 7496,
      "Ġusual": 7497,
      "action": 7498,
      "Ġperception": 7499,
      "ĠStation": 7500,
      "Ġaccident": 7501,
      "Ġscript": 7502,
      "chnology": 7503,
      "Ġsmart": 7504,
      "Ġextend": 7505,
      "Ġdistributed": 7506,
      "Ġvisits": 7507,
      "Ġpercentage": 7508,
      "Ġdirections": 7509,
      "ĠClimate": 7510,
      "Ġpointed": 7511,
      "Ġindustries": 7512,
      "Ġassociation": 7513,
      "Ġindicated": 7514,
      "Ġlaid": 7515,
      "ĠHeritage": 7516,
      "ĠCommunity": 7517,
      "ĠConference": 7518,
      "Ġtube": 7519,
      "Ġprincipal": 7520,
      "ĠProtection": 7521,
      "Ġcategories": 7522,
      "Ġconfirmed": 7523,
      "ĠPolicy": 7524,
      "41": 7525,
      "SP": 7526,
      "ester": 7527,
      "Ġmour": 7528,
      "Ġdys": 7529,
      "Ġhosp": 7530,
      "Ġnerv": 7531,
      "otype": 7532,
      "Ġstead": 7533,
      "ulpt": 7534,
      "ĠWhe": 7535,
      "ĠDu": 7536,
      "Ġshock": 7537,
      "agn": 7538,
      "aked": 7539,
      "ube": 7540,
      "Ġnewly": 7541,
      "rowing": 7542,
      "Ġphosph": 7543,
      "Ġproportion": 7544,
      "Ġsunlight": 7545,
      "Ġdestruction": 7546,
      "Ġreveal": 7547,
      "Ġsustainability": 7548,
      "Ġspectrum": 7549,
      "Ġsplit": 7550,
      "unicipal": 7551,
      "CP": 7552,
      "ye": 7553,
      "Ġton": 7554,
      "hea": 7555,
      "eries": 7556,
      "itler": 7557,
      "Ġmac": 7558,
      "asant": 7559,
      "Ġgro": 7560,
      "ĠSund": 7561,
      "essions": 7562,
      "ĠHill": 7563,
      "acing": 7564,
      "Ġspok": 7565,
      "ella": 7566,
      "Ġblocks": 7567,
      "Ġexamination": 7568,
      "Ġforming": 7569,
      "Ġdetected": 7570,
      "oids": 7571,
      "Ġradical": 7572,
      "Ġpreventing": 7573,
      "Ġconnections": 7574,
      "2009": 7575,
      "Ġstopped": 7576,
      "Ġpsychology": 7577,
      "ĠCorps": 7578,
      "Ġgradually": 7579,
      "ĠVolume": 7580,
      "Ġranging": 7581,
      "?âĢĿ": 7582,
      "CI": 7583,
      "RA": 7584,
      "she": 7585,
      "uber": 7586,
      "inally": 7587,
      "alination": 7588,
      "ouri": 7589,
      "rooms": 7590,
      "ĠAT": 7591,
      "Ġstick": 7592,
      "elve": 7593,
      "ĠPen": 7594,
      "ĠRock": 7595,
      "Ġusage": 7596,
      "Ġadap": 7597,
      "Ġquiet": 7598,
      "Ġthereby": 7599,
      "Ġracial": 7600,
      "Ġproven": 7601,
      "Ġregime": 7602,
      "Ġwrites": 7603,
      "Ġguess": 7604,
      "Ġlowest": 7605,
      "ĠYoung": 7606,
      "Ġreceiving": 7607,
      "Ġcalories": 7608,
      "Ġsettlement": 7609,
      "Ġheavily": 7610,
      "Ġbrand": 7611,
      "Ġprinted": 7612,
      "Ġevaluation": 7613,
      "Ġuniversal": 7614,
      "Ġinformed": 7615,
      "ixture": 7616,
      "81": 7617,
      "foot": 7618,
      "Â®": 7619,
      "onents": 7620,
      "Ġpion": 7621,
      "Ġfisher": 7622,
      "ounce": 7623,
      "Ġdensity": 7624,
      "Ġrect": 7625,
      "olt": 7626,
      "ĠMah": 7627,
      "ĠMoon": 7628,
      "Ġexclus": 7629,
      "Ġrank": 7630,
      "Ġshoot": 7631,
      "Ġtheme": 7632,
      "Ġroots": 7633,
      "obile": 7634,
      "Ġsubspecies": 7635,
      "Ġpatch": 7636,
      "Ġartist": 7637,
      "Ġfinished": 7638,
      "ĠZeal": 7639,
      "Ġfunded": 7640,
      "Ġvariables": 7641,
      "ĠAntar": 7642,
      "Ġmissing": 7643,
      "Ġarrange": 7644,
      "Ġautomatically": 7645,
      "Ġsaved": 7646,
      "Ġclothing": 7647,
      "Ġroughly": 7648,
      "Ġdiscipline": 7649,
      "Ġphrase": 7650,
      "admium": 7651,
      "Ġnervous": 7652,
      "63": 7653,
      "Ref": 7654,
      "bour": 7655,
      "gence": 7656,
      "la": 7657,
      "power": 7658,
      "top": 7659,
      "yal": 7660,
      "zymes": 7661,
      "isd": 7662,
      "Ġbath": 7663,
      "Ġthyroid": 7664,
      "Ġrely": 7665,
      "Ġlists": 7666,
      "Ġlymph": 7667,
      "sets": 7668,
      "Ġgases": 7669,
      "amber": 7670,
      "aded": 7671,
      "ĠMS": 7672,
      "ĠMach": 7673,
      "ifer": 7674,
      "istical": 7675,
      "ĠWin": 7676,
      "Ġevident": 7677,
      "Ġsched": 7678,
      "Ġeffectiveness": 7679,
      "ollowing": 7680,
      "ĠSpring": 7681,
      "class": 7682,
      "Ġvalid": 7683,
      "Ġtemporary": 7684,
      "ĠCentre": 7685,
      "Ġterror": 7686,
      "Ġswitch": 7687,
      "Ġcirculation": 7688,
      "Ġstronger": 7689,
      "Ġasking": 7690,
      "Ġcopies": 7691,
      "Ġseparated": 7692,
      "Ġsettled": 7693,
      "ĠMcC": 7694,
      "ĠNeu": 7695,
      "Ġtelevision": 7696,
      "Ġuniversities": 7697,
      "Ġscheme": 7698,
      "ĠSecretary": 7699,
      "ĠChevrolet": 7700,
      "DT": 7701,
      "FC": 7702,
      "Go": 7703,
      "IM": 7704,
      "Lear": 7705,
      "mail": 7706,
      "Ġtables": 7707,
      "Ġmg": 7708,
      "Ġmales": 7709,
      "Ġreaching": 7710,
      "sell": 7711,
      "ĠCre": 7712,
      "ĠCub": 7713,
      "Ġstake": 7714,
      "Ġstreet": 7715,
      "adow": 7716,
      "Ġconclus": 7717,
      "Ġwithd": 7718,
      "ĠMot": 7719,
      "Ġoral": 7720,
      "ums": 7721,
      "ĠDig": 7722,
      "ĠDoes": 7723,
      "ĠFund": 7724,
      "ildren": 7725,
      "eps": 7726,
      "Ġmaybe": 7727,
      "oves": 7728,
      "ĠProb": 7729,
      "Ġminerals": 7730,
      "Ġconsidering": 7731,
      "aterials": 7732,
      "Ġrealize": 7733,
      "Ġobservation": 7734,
      "cientists": 7735,
      "ourage": 7736,
      "Ġdivor": 7737,
      "Ġvideos": 7738,
      "Ġhabitats": 7739,
      "Ġimplemented": 7740,
      "Ġordered": 7741,
      "Ġelectrons": 7742,
      "Ġinnovation": 7743,
      "Ġglucose": 7744,
      "03": 7745,
      "Figure": 7746,
      "Once": 7747,
      "bel": 7748,
      "feed": 7749,
      "iary": 7750,
      "mers": 7751,
      "Ġtorn": 7752,
      "requ": 7753,
      "Ġwelfare": 7754,
      "orters": 7755,
      "Ġblow": 7756,
      "Ġbull": 7757,
      "Ġmercury": 7758,
      "Ġdance": 7759,
      "Ġdates": 7760,
      "Ġhat": 7761,
      "enter": 7762,
      "Ġthroat": 7763,
      "Ġrevenue": 7764,
      "Ġlunch": 7765,
      "Ġgrid": 7766,
      "imp": 7767,
      "ĠPoint": 7768,
      "quar": 7769,
      "ĠDO": 7770,
      "ĠLow": 7771,
      "ĠLess": 7772,
      "aph": 7773,
      "Ġimaging": 7774,
      "ĠJava": 7775,
      "Ġcontribution": 7776,
      "Ġcompare": 7777,
      "Ġarmed": 7778,
      "avor": 7779,
      "Ġevolved": 7780,
      "Ġrelax": 7781,
      "ĠYear": 7782,
      "Ġobesity": 7783,
      "awn": 7784,
      "Ġexamined": 7785,
      "Ġknowing": 7786,
      "Ġinsulin": 7787,
      "ĠExpl": 7788,
      "Ġstructural": 7789,
      "ĠOnline": 7790,
      "Ġmeasurement": 7791,
      "ĠMethod": 7792,
      "Ġordinary": 7793,
      "Ġfeedback": 7794,
      "Ġminority": 7795,
      "Ġappointed": 7796,
      "Comp": 7797,
      "Click": 7798,
      "Jan": 7799,
      "PV": 7800,
      "Today": 7801,
      "cially": 7802,
      "made": 7803,
      "athered": 7804,
      "Ġcod": 7805,
      "Ġfulf": 7806,
      "iders": 7807,
      "ceans": 7808,
      "uled": 7809,
      "Ġ1000": 7810,
      "ĠDespite": 7811,
      "ĠFe": 7812,
      "ĠGall": 7813,
      "ĠLanguage": 7814,
      "ĠObs": 7815,
      "Ġevil": 7816,
      "Ġsmoking": 7817,
      "ĠAsk": 7818,
      "Ġhummingb": 7819,
      "Ġsciences": 7820,
      "Ġvariation": 7821,
      "Ġdesigns": 7822,
      "Ġconfident": 7823,
      "2013": 7824,
      "lishing": 7825,
      "Ġengines": 7826,
      "Ġrestore": 7827,
      "ĠChristians": 7828,
      "Ġteams": 7829,
      "Ġbringing": 7830,
      "Ġsuscept": 7831,
      "ĠAuthor": 7832,
      "Ġmathematical": 7833,
      "Ġmitochond": 7834,
      "Ġthermal": 7835,
      "ĠAND": 7836,
      "otherapy": 7837,
      "77": 7838,
      "83": 7839,
      "Mar": 7840,
      "RS": 7841,
      "iw": 7842,
      "mod": 7843,
      "Ġcav": 7844,
      "esides": 7845,
      "iture": 7846,
      "icity": 7847,
      "Ġloved": 7848,
      "sex": 7849,
      "ĠCross": 7850,
      "iratory": 7851,
      "odox": 7852,
      "Ġdeeper": 7853,
      "ĠWed": 7854,
      "ĠFil": 7855,
      "Ġrational": 7856,
      "apse": 7857,
      "ĠJr": 7858,
      "Ġdisability": 7859,
      "ipher": 7860,
      "ĠVill": 7861,
      "Ġraising": 7862,
      "Ġpharm": 7863,
      "neys": 7864,
      "Ġattitude": 7865,
      "Ġmining": 7866,
      "Ġcorrel": 7867,
      "ĠColl": 7868,
      "syl": 7869,
      "Ġfarms": 7870,
      "Ġcontainers": 7871,
      "Ġabsence": 7872,
      "Ġsettings": 7873,
      "Ġorders": 7874,
      "Ġvictory": 7875,
      "Ġbanks": 7876,
      "Ġstreams": 7877,
      "Ġbeauty": 7878,
      "Ġempire": 7879,
      "Ġconstantly": 7880,
      "Ġstimul": 7881,
      "Ġpurchase": 7882,
      "Ġgalaxy": 7883,
      "ĠNavy": 7884,
      "Ġkilometers": 7885,
      "CH": 7886,
      "Don": 7887,
      "ao": 7888,
      "pes": 7889,
      "wan": 7890,
      "yles": 7891,
      "Ġtaste": 7892,
      "Ġfellow": 7893,
      "Ġmira": 7894,
      "ilation": 7895,
      "ĠAS": 7896,
      "ĠAge": 7897,
      "otton": 7898,
      "Ġstuff": 7899,
      "Ġdeer": 7900,
      "ĠBattle": 7901,
      "outheast": 7902,
      "Ġdisrupt": 7903,
      "Ġcompounds": 7904,
      "Ġunw": 7905,
      "ĠChapter": 7906,
      "phabet": 7907,
      "Ġbless": 7908,
      "Ġblind": 7909,
      "Ġ55": 7910,
      "Ġdefault": 7911,
      "ĠSpain": 7912,
      "ĠSpirit": 7913,
      "Ġmaintained": 7914,
      "Ġprogramming": 7915,
      "Ġdemands": 7916,
      "nedy": 7917,
      "Ġchemistry": 7918,
      "ĠChristmas": 7919,
      "Ġflows": 7920,
      "Ġimprovements": 7921,
      "ursday": 7922,
      "Ġlifetime": 7923,
      "Ġaimed": 7924,
      "Ġphysicians": 7925,
      "Ġimagine": 7926,
      "ĠFinally": 7927,
      "Ġinhabit": 7928,
      "Ġdynamic": 7929,
      "ĠZealand": 7930,
      "04": 7931,
      "Comm": 7932,
      "iate": 7933,
      "upt": 7934,
      "you": 7935,
      "inch": 7936,
      "Ġcensus": 7937,
      "Ġmir": 7938,
      "Ġmature": 7939,
      "icut": 7940,
      "ĠCT": 7941,
      "Ġstores": 7942,
      "aying": 7943,
      "mental": 7944,
      "ogl": 7945,
      "Ġcompound": 7946,
      "Ġinfect": 7947,
      "Ġinfant": 7948,
      "Ġprey": 7949,
      "Ġourselves": 7950,
      "Ġearliest": 7951,
      "Ġcomplement": 7952,
      "ĠIndones": 7953,
      "Ġsolve": 7954,
      "Ġadvis": 7955,
      "Ġguidance": 7956,
      "Ġoccurring": 7957,
      "Ġdevast": 7958,
      "Ġplayers": 7959,
      "ĠBefore": 7960,
      "Ġfalls": 7961,
      "Ġhydro": 7962,
      "Ġaudience": 7963,
      "Ġbeliefs": 7964,
      "ĠReference": 7965,
      "Researchers": 7966,
      "ĠPortug": 7967,
      "Ġbattery": 7968,
      "Ġhypothesis": 7969,
      "sylvan": 7970,
      "Am": 7971,
      "BI": 7972,
      "DE": 7973,
      "Under": 7974,
      "brid": 7975,
      "iability": 7976,
      "zer": 7977,
      "Ġbatt": 7978,
      "aning": 7979,
      "anas": 7980,
      "Ġment": 7981,
      "Ġlit": 7982,
      "Ġbeings": 7983,
      "this": 7984,
      "istant": 7985,
      "Ġdealing": 7986,
      "about": 7987,
      "Ġsuit": 7988,
      "emet": 7989,
      "ĠDiff": 7990,
      "ocyt": 7991,
      "Ġships": 7992,
      "Ġcommands": 7993,
      "Ġdesired": 7994,
      "Ġspecified": 7995,
      "Ġinvention": 7996,
      "Ġfunds": 7997,
      "Ġprotecting": 7998,
      "Ġargue": 7999,
      "Ġviruses": 8000,
      "ĠEgyptian": 8001,
      "ĠMissouri": 8002,
      "Ġcollaboration": 8003,
      "ĠIslamic": 8004,
      "Ġbutterf": 8005,
      "ĠMalaysia": 8006,
      "abulary": 8007,
      "ĠConnecticut": 8008,
      "%.": 8009,
      "Ed": 8010,
      "UT": 8011,
      "chen": 8012,
      "ois": 8013,
      "Ġpor": 8014,
      "Ġfabric": 8015,
      "Ġdrain": 8016,
      "Ġlots": 8017,
      "utrition": 8018,
      "raph": 8019,
      "ĠCreat": 8020,
      "ĠHy": 8021,
      "Ġven": 8022,
      "ĠField": 8023,
      "ĠGet": 8024,
      "ostic": 8025,
      "ĠInit": 8026,
      "agon": 8027,
      "ĠChange": 8028,
      "Ġgenome": 8029,
      "onday": 8030,
      "plete": 8031,
      "Ġpresents": 8032,
      "ĠAlaska": 8033,
      "Ġoccas": 8034,
      "Ġhandling": 8035,
      "Ġfunctional": 8036,
      "ĠScot": 8037,
      "Ġdebt": 8038,
      "Ġirrigation": 8039,
      "Ġvotes": 8040,
      "Ġwearing": 8041,
      "ĠCommonwealth": 8042,
      "Ġpilot": 8043,
      "Ġthorough": 8044,
      "%)": 8045,
      "06": 8046,
      "Or": 8047,
      "sm": 8048,
      "sue": 8049,
      "yer": 8050,
      "Ġcattle": 8051,
      "essee": 8052,
      "Ġholid": 8053,
      "ĠTib": 8054,
      "ĠAL": 8055,
      "ĠSing": 8056,
      "ĠCy": 8057,
      "ĠCall": 8058,
      "thodox": 8059,
      "ĠBol": 8060,
      "ĠLiter": 8061,
      "Ġagent": 8062,
      "Ġ37": 8063,
      "archy": 8064,
      "....": 8065,
      "Ġcommunications": 8066,
      "upiter": 8067,
      "Ġconfirm": 8068,
      "Ġfunctioning": 8069,
      "Ġhardware": 8070,
      "Ġaddressed": 8071,
      "Ġconsideration": 8072,
      "Ġinitially": 8073,
      "Ġstatistics": 8074,
      "Ġcement": 8075,
      "Ġregardless": 8076,
      "Ġaffecting": 8077,
      "Ġcomplications": 8078,
      "Ġbrings": 8079,
      "Ġvoting": 8080,
      "Ġvirtually": 8081,
      "Ġassistant": 8082,
      "Ġrecommendations": 8083,
      "Ġemphasis": 8084,
      "ĠKennedy": 8085,
      "ĠTreatment": 8086,
      "Ġjurisd": 8087,
      "Ġswimming": 8088,
      "Ġhabits": 8089,
      "emetery": 8090,
      "Back": 8091,
      "Le": 8092,
      "PS": 8093,
      "sub": 8094,
      "Ġcovenant": 8095,
      "ĠSus": 8096,
      "âĢĺ": 8097,
      "ĠCA": 8098,
      "adder": 8099,
      "Ġassemb": 8100,
      "ĠBiology": 8101,
      "Ġhero": 8102,
      "Ġsup": 8103,
      "ĠGar": 8104,
      "ĠOS": 8105,
      "agen": 8106,
      "Ġmeal": 8107,
      "Ġpreval": 8108,
      "ailed": 8109,
      "Ġregister": 8110,
      "Ġsculpt": 8111,
      "Ġcharged": 8112,
      "ĠAdam": 8113,
      "Ġidentification": 8114,
      "ĠClinical": 8115,
      "Ġdifficulties": 8116,
      "Ġfalling": 8117,
      "ependent": 8118,
      "ĠQuest": 8119,
      "Ġdecreased": 8120,
      "Ġcategory": 8121,
      "ĠTestament": 8122,
      "ineteenth": 8123,
      "Ġpoetry": 8124,
      "Ġhazardous": 8125,
      "Ġstreets": 8126,
      "800": 8127,
      "Get": 8128,
      "Sm": 8129,
      "Sub": 8130,
      "],": 8131,
      "fe": 8132,
      "Ġid": 8133,
      "stic": 8134,
      "iments": 8135,
      "ĠSqu": 8136,
      "Ġitem": 8137,
      "Ġhealing": 8138,
      "ĠHor": 8139,
      "ĠFair": 8140,
      "Ġspons": 8141,
      "Ġshapes": 8142,
      "Ġworst": 8143,
      "ĠJon": 8144,
      "ateral": 8145,
      "ultane": 8146,
      "Ġcomprom": 8147,
      "Ġdesalination": 8148,
      "Ġformula": 8149,
      "Ġrefuge": 8150,
      "Ġentering": 8151,
      "Ġenthus": 8152,
      "ĠIndust": 8153,
      "Ġlights": 8154,
      "Ġviewed": 8155,
      "Ġrepresentative": 8156,
      "Ġthreats": 8157,
      "Ġcolonies": 8158,
      "Ġreviewed": 8159,
      "Ġvillages": 8160,
      "ĠCheck": 8161,
      "Ġexecutive": 8162,
      "ĠServer": 8163,
      "Ġfavorite": 8164,
      "ĠOpen": 8165,
      "Ġperceived": 8166,
      "Ġmetabol": 8167,
      "ĠSunday": 8168,
      "sylvania": 8169,
      ")||": 8170,
      "92": 8171,
      "Add": 8172,
      "EE": 8173,
      "Source": 8174,
      "cin": 8175,
      "nov": 8176,
      "type": 8177,
      "vation": 8178,
      "Ġvel": 8179,
      "reens": 8180,
      "Ġsitting": 8181,
      "itivity": 8182,
      "Ġpair": 8183,
      "Ġnice": 8184,
      "oli": 8185,
      "ĠSection": 8186,
      "igo": 8187,
      "ĠRab": 8188,
      "Ġspending": 8189,
      "ells": 8190,
      "ĠJeff": 8191,
      "izer": 8192,
      "endment": 8193,
      "ĠVar": 8194,
      "Ġgenetics": 8195,
      "ritten": 8196,
      "Ġacknow": 8197,
      "ĠConvention": 8198,
      "Ġskill": 8199,
      "Ġconfig": 8200,
      "Ġserving": 8201,
      "Ġperforming": 8202,
      "Ġdomain": 8203,
      "ĠParkinson": 8204,
      "Ġtargets": 8205,
      "Ġangle": 8206,
      "Ġbreath": 8207,
      "haust": 8208,
      "Ġvirtual": 8209,
      "Ġfiber": 8210,
      "Ġsongs": 8211,
      "ĠStandard": 8212,
      "Ġhorizont": 8213,
      "ĠAgriculture": 8214,
      "Ġillegal": 8215,
      "CA": 8216,
      "Let": 8217,
      "She": 8218,
      "fl": 8219,
      "green": 8220,
      "mble": 8221,
      "Ġsod": 8222,
      "Ġcraft": 8223,
      "isdom": 8224,
      "orith": 8225,
      "Ġpace": 8226,
      "Ġfought": 8227,
      "Ġmes": 8228,
      "Ġmine": 8229,
      "rove": 8230,
      "Ġbees": 8231,
      "urning": 8232,
      "ĠIce": 8233,
      "Ġprosp": 8234,
      "estyle": 8235,
      "ĠHitler": 8236,
      "Ġvac": 8237,
      "ĠDown": 8238,
      "ĠFact": 8239,
      "ĠFred": 8240,
      "Ġimpair": 8241,
      "Ġaggressive": 8242,
      "phal": 8243,
      "Ġdesire": 8244,
      "ovascular": 8245,
      "Ġbuff": 8246,
      "Ġendangered": 8247,
      "Ġboost": 8248,
      "Ġmusical": 8249,
      "Ġavailability": 8250,
      "Ġprominent": 8251,
      "Ġfaced": 8252,
      "2008": 8253,
      "Ġcopper": 8254,
      "ĠMarine": 8255,
      "zech": 8256,
      "hyl": 8257,
      "ĠSystems": 8258,
      "Ġarguments": 8259,
      "Ġlibert": 8260,
      "Ġtrends": 8261,
      "Ġflexible": 8262,
      "Ġantibiotics": 8263,
      "Ġenormous": 8264,
      "Def": 8265,
      "Part": 8266,
      "oard": 8267,
      "erly": 8268,
      "Ġsoph": 8269,
      "Ġcash": 8270,
      "itual": 8271,
      "Ġbridge": 8272,
      "ani": 8273,
      "arks": 8274,
      "Ġdies": 8275,
      "raham": 8276,
      "amination": 8277,
      "through": 8278,
      "ĠPass": 8279,
      "Ġheel": 8280,
      "ĠDrug": 8281,
      "ocated": 8282,
      "ĠFind": 8283,
      "ĠNaz": 8284,
      "Ġnotion": 8285,
      "ĠLos": 8286,
      "Ġenzyme": 8287,
      "ologically": 8288,
      "Ġaccord": 8289,
      "Ġpoem": 8290,
      "grams": 8291,
      "ieth": 8292,
      "Ġmeteor": 8293,
      "Ġcooperation": 8294,
      "Ġlock": 8295,
      "Ġeveryday": 8296,
      "Ġdescript": 8297,
      "Ġdevoted": 8298,
      "Ġproviders": 8299,
      "ĠMedia": 8300,
      "ashion": 8301,
      "ltry": 8302,
      "Ġlogic": 8303,
      "ĠMinistry": 8304,
      "Ġcitizen": 8305,
      "Ġhopes": 8306,
      "Ġtrigger": 8307,
      "ĠDaniel": 8308,
      "warf": 8309,
      "Ġphotographs": 8310,
      "ĠTennessee": 8311,
      "82": 8312,
      "91": 8313,
      "Col": 8314,
      "Rel": 8315,
      "Ġcul": 8316,
      "itarian": 8317,
      "also": 8318,
      "Ġdict": 8319,
      "Ġreef": 8320,
      "Ġgathered": 8321,
      "rays": 8322,
      "Ġ(âĢľ": 8323,
      "ĠPract": 8324,
      "Ġvan": 8325,
      "rix": 8326,
      "ĠWall": 8327,
      "ocent": 8328,
      "ĠFather": 8329,
      "ĠLight": 8330,
      "asty": 8331,
      "Ġclinic": 8332,
      "Ġclouds": 8333,
      "Ġinfants": 8334,
      "iano": 8335,
      "ieve": 8336,
      "Ġtwelve": 8337,
      "Ġoffering": 8338,
      "neum": 8339,
      "Ġempt": 8340,
      "Ġmetres": 8341,
      "Ġdramat": 8342,
      "ĠHisp": 8343,
      "Ġdominant": 8344,
      "Ġutility": 8345,
      "ĠBooks": 8346,
      "Ġfarming": 8347,
      "Ġpollut": 8348,
      "Ġcolonial": 8349,
      "Ġmutations": 8350,
      "Ġcontributed": 8351,
      "ĠModern": 8352,
      "Ġqualities": 8353,
      "Ġexcessive": 8354,
      "Ġconstitutional": 8355,
      "Ġchannel": 8356,
      "ĠJacob": 8357,
      "cs": 8358,
      "date": 8359,
      "def": 8360,
      "mes": 8361,
      "Ġcort": 8362,
      "oric": 8363,
      "Ġbeds": 8364,
      "Ġfet": 8365,
      "omatic": 8366,
      "olph": 8367,
      "ĠTake": 8368,
      "otal": 8369,
      "Ġprol": 8370,
      "Ġconvey": 8371,
      "ĠPH": 8372,
      "ĠPot": 8373,
      "ĠPak": 8374,
      "ĠBot": 8375,
      "ogs": 8376,
      "ecess": 8377,
      "actic": 8378,
      "pert": 8379,
      "agan": 8380,
      "Ġreserv": 8381,
      "Ġarsen": 8382,
      "Ġroyal": 8383,
      "iously": 8384,
      "Ġacute": 8385,
      "Ġcounties": 8386,
      "Ġgrain": 8387,
      "Ġparticle": 8388,
      "Ġserves": 8389,
      "2010": 8390,
      "ĠResp": 8391,
      "Ġkeeps": 8392,
      "Ġpromise": 8393,
      "ĠOrig": 8394,
      "Ġlearners": 8395,
      "Ġlosses": 8396,
      "Ġdiagram": 8397,
      "Ġversions": 8398,
      "Ġvitamins": 8399,
      "Ġtransmitted": 8400,
      "Ġepis": 8401,
      "ENT": 8402,
      "Ġscreening": 8403,
      "ĠSpecies": 8404,
      "Ġreproductive": 8405,
      "Ġunlikely": 8406,
      "Ġsubsid": 8407,
      "Ġingredients": 8408,
      "Ġhospitals": 8409,
      "Ġconclusions": 8410,
      "62": 8411,
      "93": 8412,
      "after": 8413,
      "lights": 8414,
      "Ġod": 8415,
      "Ġcas": 8416,
      "Ġbibl": 8417,
      "cts": 8418,
      "Ġnort": 8419,
      "ĠSir": 8420,
      "iration": 8421,
      "Ġank": 8422,
      "ĠMic": 8423,
      "Ġritual": 8424,
      "Ġenables": 8425,
      "Ġshore": 8426,
      "Ġworry": 8427,
      "Ġworship": 8428,
      "ĠJo": 8429,
      "Ġresid": 8430,
      "Ġunp": 8431,
      "Ġthanks": 8432,
      "Ġsurre": 8433,
      "awa": 8434,
      "Ġmoderate": 8435,
      "Ġextension": 8436,
      "Ġcarb": 8437,
      "Ġreader": 8438,
      "stitutes": 8439,
      "Ġconfidence": 8440,
      "Ġoldest": 8441,
      "Ġparad": 8442,
      "Ġprofit": 8443,
      "Ġprophe": 8444,
      "Ġfilter": 8445,
      "Ġ1988": 8446,
      "Ġexisted": 8447,
      "Ġrepresentatives": 8448,
      "Ġcharacteristic": 8449,
      "rels": 8450,
      "Ġprobability": 8451,
      "ĠPeace": 8452,
      "ĠPerhaps": 8453,
      "Ġcolony": 8454,
      "Ġpackage": 8455,
      "ĠArea": 8456,
      "ĠMorris": 8457,
      "Ġkingdom": 8458,
      "Ġinspired": 8459,
      "Ġcustomers": 8460,
      "Ġwatching": 8461,
      "Ġneurolog": 8462,
      "Ġreplacement": 8463,
      "Ġdiscoveries": 8464,
      "Ġduty": 8465,
      "ĠPennsylvania": 8466,
      "AB": 8467,
      "Copyright": 8468,
      "eut": 8469,
      "ko": 8470,
      "kind": 8471,
      "Ġ||": 8472,
      "ref": 8473,
      "Ġpel": 8474,
      "Ġfest": 8475,
      "Ġdoses": 8476,
      "station": 8477,
      "Ġbell": 8478,
      "Ġbears": 8479,
      "ĠSign": 8480,
      "Ġconce": 8481,
      "ĠMult": 8482,
      "Ġ120": 8483,
      "usiness": 8484,
      "anda": 8485,
      "ĠLittle": 8486,
      "Ġwheel": 8487,
      "Ġadvent": 8488,
      "Ġmeals": 8489,
      "Ġunem": 8490,
      "Ġpron": 8491,
      "Ġgrains": 8492,
      "gener": 8493,
      "Ġreporting": 8494,
      "Ġguard": 8495,
      "Ġbasically": 8496,
      "ployed": 8497,
      "Ġdipl": 8498,
      "Ġconcerning": 8499,
      "Ġgeomet": 8500,
      "Ġtribe": 8501,
      "Ġstruck": 8502,
      "Ġconvert": 8503,
      "Ġpalm": 8504,
      "Ġshelter": 8505,
      "Ġneighborhood": 8506,
      "ĠIrish": 8507,
      "ĠUtah": 8508,
      "08": 8509,
      "51": 8510,
      "Com": 8511,
      "bul": 8512,
      "ga": 8513,
      "Ġbread": 8514,
      "Ġfuels": 8515,
      "ctor": 8516,
      "Ġnom": 8517,
      "ĠCorn": 8518,
      "amine": 8519,
      "ĠMove": 8520,
      "Ġwhale": 8521,
      "thood": 8522,
      "ĠPage": 8523,
      "ĠBru": 8524,
      "illance": 8525,
      "Ġexhaust": 8526,
      "Ġhepat": 8527,
      "ĠFigure": 8528,
      "ĠRNA": 8529,
      "ĠNic": 8530,
      "Ġenzymes": 8531,
      "duate": 8532,
      "iah": 8533,
      "Ġdism": 8534,
      "Ġroles": 8535,
      "Ġsurgical": 8536,
      "Ġdecor": 8537,
      "Ġcoverage": 8538,
      "Ġdetection": 8539,
      "Ġevening": 8540,
      "Ġcheap": 8541,
      "Ġinsight": 8542,
      "Ġdemocracy": 8543,
      "Ġobjective": 8544,
      "ĠMedic": 8545,
      "Ġcollections": 8546,
      "Ġannually": 8547,
      "ĠAppro": 8548,
      "ĠMoreover": 8549,
      "Ġirrit": 8550,
      "ĠImm": 8551,
      "Ġuncertain": 8552,
      "Ġgardens": 8553,
      "Ġwait": 8554,
      "Ġestablishment": 8555,
      "Ġcontributions": 8556,
      "ĠMountains": 8557,
      "Ġmigration": 8558,
      "uzz": 8559,
      "Ġpartnership": 8560,
      "ĠMuslims": 8561,
      "Ġfifth": 8562,
      "Ġapparently": 8563,
      "Ġtraditions": 8564,
      "ĠMicrosoft": 8565,
      "Ġdiameter": 8566,
      "Ġtheoretical": 8567,
      "Ġathletes": 8568,
      "ĠâĨ": 8569,
      "Ge": 8570,
      "eath": 8571,
      "group": 8572,
      "iological": 8573,
      "uing": 8574,
      "uction": 8575,
      "Ġsale": 8576,
      "Ġsales": 8577,
      "Ġmunicipal": 8578,
      "icular": 8579,
      "lete": 8580,
      "ĠTV": 8581,
      "ĠType": 8582,
      "ĠCro": 8583,
      "Ġconj": 8584,
      "terol": 8585,
      "ĠPerson": 8586,
      "illion": 8587,
      "Ġatoms": 8588,
      "ĠNon": 8589,
      "Ġplain": 8590,
      "Ġ1920": 8591,
      "Ġarise": 8592,
      "lected": 8593,
      "Ġknee": 8594,
      "teenth": 8595,
      "Ġsimultane": 8596,
      "Ġexploration": 8597,
      "ĠIndex": 8598,
      "ĠIndeed": 8599,
      "2011": 8600,
      "Ġbreed": 8601,
      "azon": 8602,
      "Ġmarks": 8603,
      "Ġbeneath": 8604,
      "being": 8605,
      "Ġgrounds": 8606,
      "ĠWithout": 8607,
      "Ġinjured": 8608,
      "Ġlabour": 8609,
      "Ġmolecule": 8610,
      "Ġgraduate": 8611,
      "ĠEmperor": 8612,
      "nesday": 8613,
      "Ġemotions": 8614,
      "Art": 8615,
      "Ġeliminate": 8616,
      "ĠScientists": 8617,
      "Ġpreparation": 8618,
      "Ġsuddenly": 8619,
      "ĠConstant": 8620,
      "March": 8621,
      "best": 8622,
      "rings": 8623,
      "erver": 8624,
      "Ġpest": 8625,
      "Ġpup": 8626,
      "Ġpush": 8627,
      "Ġflying": 8628,
      "Ġmixture": 8629,
      "role": 8630,
      "Ġhole": 8631,
      "Ġthirty": 8632,
      "Ġlens": 8633,
      "uther": 8634,
      "Ġforg": 8635,
      "ĠCreek": 8636,
      "uscript": 8637,
      "ivest": 8638,
      "ĠNation": 8639,
      "ĠLast": 8640,
      "aret": 8641,
      "Ġadverse": 8642,
      "Ġtea": 8643,
      "Ġrecording": 8644,
      "ĠChief": 8645,
      "Ġtraits": 8646,
      "Ġwouldn": 8647,
      "atively": 8648,
      "ĠAssembly": 8649,
      "Ġexplicit": 8650,
      "Ġposted": 8651,
      "Ġanalys": 8652,
      "riday": 8653,
      "oxide": 8654,
      "Ġcreatures": 8655,
      "umps": 8656,
      "ĠLeague": 8657,
      "Ġsensors": 8658,
      "Ġdietary": 8659,
      "Ġdivide": 8660,
      "Ġreflected": 8661,
      "olesterol": 8662,
      "ĠLawrence": 8663,
      "Ġtranslation": 8664,
      "Ġacquired": 8665,
      "Ġadmitted": 8666,
      "Ġinvolvement": 8667,
      "Ġpreferred": 8668,
      "Ġfinger": 8669,
      "Ġchromosome": 8670,
      "usalem": 8671,
      "Ġaccompanied": 8672,
      "97": 8673,
      "Rep": 8674,
      "bach": 8675,
      "door": 8676,
      "Ġtanks": 8677,
      "eness": 8678,
      "Ġcure": 8679,
      "Ġcadmium": 8680,
      "ila": 8681,
      "Ġerect": 8682,
      "Ġlosing": 8683,
      "idal": 8684,
      "rared": 8685,
      "Ġstood": 8686,
      "ĠIU": 8687,
      "Ġpros": 8688,
      "Ġalive": 8689,
      "ĠHunt": 8690,
      "acent": 8691,
      "ĠFar": 8692,
      "ĠGre": 8693,
      "Ġspoke": 8694,
      "Ġmanager": 8695,
      "aved": 8696,
      "Ġpartly": 8697,
      "ĠHeart": 8698,
      "othy": 8699,
      "Ġflour": 8700,
      "Ġtransp": 8701,
      "Ġreferences": 8702,
      "Ġgram": 8703,
      "ometer": 8704,
      "Ġauton": 8705,
      "Ġmillenn": 8706,
      "Ġpainful": 8707,
      "Ġharder": 8708,
      "Ġvolt": 8709,
      "ĠMaria": 8710,
      "Ġdrives": 8711,
      "Ġvariations": 8712,
      "inois": 8713,
      "Ġevolutionary": 8714,
      "olitan": 8715,
      "Ġhurt": 8716,
      "Ġcameras": 8717,
      "Ġinterpretation": 8718,
      "Ġjuvenile": 8719,
      "Ġgalaxies": 8720,
      "Ġmortality": 8721,
      "Ġalgorith": 8722,
      "Ġpoultry": 8723,
      "ghanistan": 8724,
      "66": 8725,
      "PD": 8726,
      "Scientists": 8727,
      "Where": 8728,
      "aith": 8729,
      "lah": 8730,
      "rong": 8731,
      "was": 8732,
      "western": 8733,
      "zes": 8734,
      "Ġ;": 8735,
      "Ġtip": 8736,
      "Ġom": 8737,
      "atre": 8738,
      "Ġsad": 8739,
      "Ġsulf": 8740,
      "Ġcro": 8741,
      "Ġwine": 8742,
      "itled": 8743,
      "Ġfur": 8744,
      "asm": 8745,
      "Ġlob": 8746,
      "eli": 8747,
      "opathy": 8748,
      "ĠBal": 8749,
      "ĠHim": 8750,
      "ĠHand": 8751,
      "ĠWales": 8752,
      "Ġchart": 8753,
      "Ġchose": 8754,
      "Ġspat": 8755,
      "Ġspray": 8756,
      "ĠLy": 8757,
      "fficking": 8758,
      "ĠJul": 8759,
      "Ġincent": 8760,
      "ricane": 8761,
      "ĠChile": 8762,
      "Ġoverw": 8763,
      "Ġamino": 8764,
      "nee": 8765,
      "Ġindigenous": 8766,
      "aware": 8767,
      "Ġacids": 8768,
      "Ġflash": 8769,
      "Ġgray": 8770,
      "Ġskull": 8771,
      "Ġprocessed": 8772,
      "Ġhumanity": 8773,
      "Ġreduces": 8774,
      "Ġphysically": 8775,
      "Ġparliament": 8776,
      "Ġanalog": 8777,
      "Ġdetermining": 8778,
      "Ġdescribing": 8779,
      "Ġcircuit": 8780,
      "Ġwindows": 8781,
      "ĠAssess": 8782,
      "Ġversus": 8783,
      "Ġminds": 8784,
      "Ġverb": 8785,
      "Ġcampus": 8786,
      "Ġidentifying": 8787,
      "ĠAgain": 8788,
      "Ġestablishing": 8789,
      "Ġrobot": 8790,
      "Ġarrival": 8791,
      "Ġboundaries": 8792,
      "Ġopinions": 8793,
      "Ġweakness": 8794,
      "Ġassumed": 8795,
      "Ġmanufacturers": 8796,
      "Ġsucceeded": 8797,
      "Hist": 8798,
      "di": 8799,
      "uan": 8800,
      "inates": 8801,
      "onym": 8802,
      "Ġcotton": 8803,
      "Ġfles": 8804,
      "icy": 8805,
      "entieth": 8806,
      "Ġthread": 8807,
      "ĠTre": 8808,
      "Ġgate": 8809,
      "Ġgear": 8810,
      "rav": 8811,
      "Ġstations": 8812,
      "Ġstack": 8813,
      "opes": 8814,
      "ĠBon": 8815,
      "ested": 8816,
      "rium": 8817,
      "ĠDom": 8818,
      "ĠLee": 8819,
      "ecutive": 8820,
      "ĠJim": 8821,
      "pled": 8822,
      "ĠIns": 8823,
      "Ġdischarge": 8824,
      "Ġallergy": 8825,
      "reatment": 8826,
      "Ġarthritis": 8827,
      "Ġblank": 8828,
      "uclear": 8829,
      "Ġindirect": 8830,
      "Ġcaps": 8831,
      "Ġlanding": 8832,
      "Ġcombine": 8833,
      "Ġ1986": 8834,
      "Ġ1989": 8835,
      "ĠRepresent": 8836,
      "ĠCarl": 8837,
      "Ġsentences": 8838,
      "Ġsafely": 8839,
      "Ġstrengthen": 8840,
      "Ġviolent": 8841,
      "Ġbulbs": 8842,
      "Health": 8843,
      "ĠTrade": 8844,
      "Ġquantum": 8845,
      "ioxid": 8846,
      "ĠJustice": 8847,
      "Ġexhibition": 8848,
      "Ġbranches": 8849,
      "rocod": 8850,
      "Ġnavigation": 8851,
      "Ġcorresponding": 8852,
      "Ġdistinguished": 8853,
      "Ġminimize": 8854,
      "ĠDarwin": 8855,
      "ĠConfederate": 8856,
      "elescope": 8857,
      "09": 8858,
      "box": 8859,
      "dation": 8860,
      "Ġty": 8861,
      "Ġcm": 8862,
      "Ġcub": 8863,
      "Ġwars": 8864,
      "itches": 8865,
      "Ġbare": 8866,
      "Ġinqu": 8867,
      "ĠTay": 8868,
      "ĠTry": 8869,
      "etically": 8870,
      "ĠCzech": 8871,
      "Ġstrain": 8872,
      "aming": 8873,
      "ĠPC": 8874,
      "Ġvs": 8875,
      "Ġvig": 8876,
      "Ġsearc": 8877,
      "ĠNote": 8878,
      "Ġenl": 8879,
      "astro": 8880,
      "orses": 8881,
      "ĠKids": 8882,
      "Ġrecon": 8883,
      "angle": 8884,
      "rene": 8885,
      "Ġactively": 8886,
      "Ġphases": 8887,
      "Ġattended": 8888,
      "Ġresemb": 8889,
      "adequ": 8890,
      "Ġrefused": 8891,
      "Ġinstances": 8892,
      "Ġcellular": 8893,
      "Ġauto": 8894,
      "Ġtreaty": 8895,
      "Ġ600": 8896,
      "Ġstrange": 8897,
      "Ġclassified": 8898,
      "Ġaffairs": 8899,
      "coming": 8900,
      "ĠPhD": 8901,
      "Ġrestric": 8902,
      "Ġrestoration": 8903,
      "Ġbiom": 8904,
      "shore": 8905,
      "Ġengineer": 8906,
      "Ġfluor": 8907,
      "holders": 8908,
      "Ġchallenging": 8909,
      "Ġcontrolling": 8910,
      "Ġcelebrate": 8911,
      "ĠKeep": 8912,
      "ĠSimilar": 8913,
      "Ġcooking": 8914,
      "Ġconversion": 8915,
      "Ġconversation": 8916,
      "Ġsurprised": 8917,
      "Ġdefeat": 8918,
      "ĠMiller": 8919,
      "ĠEconomic": 8920,
      "ĠIllinois": 8921,
      "ĠDivision": 8922,
      "ĠOxford": 8923,
      "Ġdisturb": 8924,
      "pdf": 8925,
      "oglob": 8926,
      ".),": 8927,
      "Co": 8928,
      "Pr": 8929,
      "Ps": 8930,
      "aus": 8931,
      "east": 8932,
      "inning": 8933,
      "aton": 8934,
      "Ġsessions": 8935,
      "alin": 8936,
      "Ġfashion": 8937,
      "chron": 8938,
      "owered": 8939,
      "ĠSix": 8940,
      "igate": 8941,
      "aya": 8942,
      "Ġdece": 8943,
      "Ġhence": 8944,
      "ĠHon": 8945,
      "ĠHam": 8946,
      "keys": 8947,
      "ĠRay": 8948,
      "ĠNext": 8949,
      "Ġabol": 8950,
      "early": 8951,
      "Ġworn": 8952,
      "Ġrecre": 8953,
      "onsin": 8954,
      "Ġaged": 8955,
      "Ġworker": 8956,
      "ĠUnfortunately": 8957,
      "Ġamazing": 8958,
      "Ġregulation": 8959,
      "Ġdeck": 8960,
      "Ġmetals": 8961,
      "they": 8962,
      "risk": 8963,
      "Ġdetermination": 8964,
      "Ġfaces": 8965,
      "apping": 8966,
      "Ġworksh": 8967,
      "Ġcontainer": 8968,
      "regon": 8969,
      "Ġvertical": 8970,
      "Ġemerging": 8971,
      "Ġintegrity": 8972,
      "Ġliterally": 8973,
      "Ġbacterial": 8974,
      "ĠInteg": 8975,
      "Ġaltered": 8976,
      "Ġpriority": 8977,
      "Ġwaiting": 8978,
      "Ġtranslated": 8979,
      "Before": 8980,
      "Ġancestors": 8981,
      "Ġecosystems": 8982,
      "ĠFurthermore": 8983,
      "Ġnarrative": 8984,
      "ĠPakistan": 8985,
      ".âĢĻ": 8986,
      "Despite": 8987,
      "Sc": 8988,
      "ais": 8989,
      "da": 8990,
      "hi": 8991,
      "mm": 8992,
      "Ġoceans": 8993,
      "erry": 8994,
      "Ġsending": 8995,
      "Ġmile": 8996,
      "Ġhall": 8997,
      "Ġhier": 8998,
      "Ġreaches": 8999,
      "Ġnineteenth": 9000,
      "Ġgrief": 9001,
      "urd": 9002,
      "ĠSustain": 9003,
      "irie": 9004,
      "abapt": 9005,
      "ĠHay": 9006,
      "ĠHop": 9007,
      "Ġvom": 9008,
      "Ġvice": 9009,
      "ĠNO": 9010,
      "ĠLarge": 9011,
      "dule": 9012,
      "ĠJupiter": 9013,
      "rub": 9014,
      "iph": 9015,
      "Ġarter": 9016,
      "oked": 9017,
      "text": 9018,
      "Ġovercome": 9019,
      "Ġcouldn": 9020,
      "Ġremed": 9021,
      "Ġcoff": 9022,
      "Ġdifferently": 9023,
      "Ġlearner": 9024,
      "Ġanticip": 9025,
      "atories": 9026,
      "Ġprofound": 9027,
      "Ġposts": 9028,
      "Ġobserve": 9029,
      "isconsin": 9030,
      "ributes": 9031,
      "ammad": 9032,
      "Ġportra": 9033,
      "Ġbarriers": 9034,
      "Ġcouncil": 9035,
      "Ġalternatives": 9036,
      "Ġcleaning": 9037,
      "Ġcorrectly": 9038,
      "Ġadopt": 9039,
      "Ġvoters": 9040,
      "Ġsurrounded": 9041,
      "Ġwavel": 9042,
      "Ġpresidential": 9043,
      "Ġillnesses": 9044,
      "Ġfibers": 9045,
      "ĠMajor": 9046,
      "itzer": 9047,
      "Ġfingers": 9048,
      "ĠJerusalem": 9049,
      "Ġcandidate": 9050,
      "ĠDougl": 9051,
      "Ġabstract": 9052,
      "Ġadapted": 9053,
      "HS": 9054,
      "Two": 9055,
      "function": 9056,
      "sun": 9057,
      "Ġ)": 9058,
      "Ġtied": 9059,
      "enh": 9060,
      "Ġbind": 9061,
      "Ġfir": 9062,
      "Ġfires": 9063,
      "arn": 9064,
      "Ġmood": 9065,
      "ĠTom": 9066,
      "oting": 9067,
      "ĠSS": 9068,
      "igue": 9069,
      "ĠCensus": 9070,
      "ĠIra": 9071,
      "aders": 9072,
      "Ġyach": 9073,
      "ĠPDF": 9074,
      "ĠPyth": 9075,
      "estone": 9076,
      "ĠHum": 9077,
      "ĠEU": 9078,
      "ĠEst": 9079,
      "ĠFish": 9080,
      "ĠRio": 9081,
      "Ġchap": 9082,
      "Ġcholesterol": 9083,
      "ortions": 9084,
      "ĠNTM": 9085,
      "Ġnoticed": 9086,
      "ourse": 9087,
      "Ġweigh": 9088,
      "Ġkin": 9089,
      "Ġincred": 9090,
      "Ġmanual": 9091,
      "Ġteens": 9092,
      "Ġimpressive": 9093,
      "Ġapplies": 9094,
      "ĠStan": 9095,
      "ĠStart": 9096,
      "ĠKent": 9097,
      "ĠChall": 9098,
      "erving": 9099,
      "Ġacting": 9100,
      "Ġoffices": 9101,
      "ĠHead": 9102,
      "aws": 9103,
      "Ġcream": 9104,
      "Ġ64": 9105,
      "Ġelectro": 9106,
      "ĠHoward": 9107,
      "Ġ85": 9108,
      "Ġ95": 9109,
      "Ġdevelopmental": 9110,
      "Ġprogramme": 9111,
      "Ġpursu": 9112,
      "ĠAllah": 9113,
      "Ġfocusing": 9114,
      "Ġreturns": 9115,
      "Ġmagazine": 9116,
      "Also": 9117,
      "Ġtelling": 9118,
      "mediate": 9119,
      "Ġargues": 9120,
      "Ġburied": 9121,
      "___": 9122,
      "Ġsuspect": 9123,
      "ĠHarvard": 9124,
      "irable": 9125,
      "Ġmaintaining": 9126,
      "Ġderiv": 9127,
      "Ġvegetation": 9128,
      "Ġcontinuing": 9129,
      "Ġoccupied": 9130,
      "Ġexhibit": 9131,
      "Ġgods": 9132,
      "lastname": 9133,
      "Ġpromoting": 9134,
      "Ġepidemic": 9135,
      "Ġoccasionally": 9136,
      "ĠWikipedia": 9137,
      "Ġremarkable": 9138,
      "Ġoverwhel": 9139,
      ",'": 9140,
      "MA": 9141,
      "QL": 9142,
      "bles": 9143,
      "fri": 9144,
      "zo": 9145,
      "Ġ`": 9146,
      "Ġcord": 9147,
      "Ġbits": 9148,
      "Ġdress": 9149,
      "Ġholy": 9150,
      "ilateral": 9151,
      "Ġreverse": 9152,
      "Ġlun": 9153,
      "eling": 9154,
      "Ġproceed": 9155,
      "ifice": 9156,
      "abama": 9157,
      "aining": 9158,
      "antly": 9159,
      "Ġsees": 9160,
      "ĠNY": 9161,
      "ĠGosp": 9162,
      "Ġshr": 9163,
      "Ġshaped": 9164,
      "aping": 9165,
      "ĠJane": 9166,
      "Ġtiming": 9167,
      "Ġtrace": 9168,
      "Ġ34": 9169,
      "Ġsurge": 9170,
      "Ġschem": 9171,
      "Ġassass": 9172,
      "cking": 9173,
      "Ġeverywhere": 9174,
      "Ġrespiratory": 9175,
      "ranes": 9176,
      "Ġending": 9177,
      "Ġdesignated": 9178,
      "Ġ800": 9179,
      "ugs": 9180,
      "Ġidentical": 9181,
      "Ġfinish": 9182,
      "Ġzones": 9183,
      "Ġencounter": 9184,
      "Ġhybrid": 9185,
      "Ġfocuses": 9186,
      "2007": 9187,
      "Ġgrants": 9188,
      "Ġsurvived": 9189,
      "Ġ1940": 9190,
      "ATION": 9191,
      "Ġembra": 9192,
      "Ġbroadcast": 9193,
      "Ġreveals": 9194,
      "Ġultimate": 9195,
      "nesota": 9196,
      "Ġtransferred": 9197,
      "Ġhousing": 9198,
      "Ġpesticide": 9199,
      "ĠSafety": 9200,
      "Ġorientation": 9201,
      "Ġconsciousness": 9202,
[...]
